{
  "version": "1.0",
  "truncation": null,
  "padding": null,
  "added_tokens": [
    {
      "id": 0,
      "content": "[UNK]",
      "single_word": false,
      "lstrip": false,
      "rstrip": false,
      "normalized": false,
      "special": true
    },
    {
      "id": 1,
      "content": "[CLS]",
      "single_word": false,
      "lstrip": false,
      "rstrip": false,
      "normalized": false,
      "special": true
    },
    {
      "id": 2,
      "content": "[SEP]",
      "single_word": false,
      "lstrip": false,
      "rstrip": false,
      "normalized": false,
      "special": true
    },
    {
      "id": 3,
      "content": "[PAD]",
      "single_word": false,
      "lstrip": false,
      "rstrip": false,
      "normalized": false,
      "special": true
    },
    {
      "id": 4,
      "content": "[MASK]",
      "single_word": false,
      "lstrip": false,
      "rstrip": false,
      "normalized": false,
      "special": true
    },
    {
      "id": 5,
      "content": "[START]",
      "single_word": false,
      "lstrip": false,
      "rstrip": false,
      "normalized": false,
      "special": true
    },
    {
      "id": 6,
      "content": "[END]",
      "single_word": false,
      "lstrip": false,
      "rstrip": false,
      "normalized": false,
      "special": true
    }
  ],
  "normalizer": null,
  "pre_tokenizer": {
    "type": "Whitespace"
  },
  "post_processor": null,
  "decoder": null,
  "model": {
    "type": "BPE",
    "dropout": null,
    "unk_token": "[UNK]",
    "continuing_subword_prefix": null,
    "end_of_word_suffix": null,
    "fuse_unk": false,
    "byte_fallback": false,
    "ignore_merges": false,
    "vocab": {
      "[UNK]": 0,
      "[CLS]": 1,
      "[SEP]": 2,
      "[PAD]": 3,
      "[MASK]": 4,
      "[START]": 5,
      "[END]": 6,
      "!": 7,
      "\"": 8,
      "#": 9,
      "$": 10,
      "%": 11,
      "&": 12,
      "'": 13,
      "(": 14,
      ")": 15,
      "*": 16,
      "+": 17,
      ",": 18,
      "-": 19,
      ".": 20,
      "/": 21,
      "0": 22,
      "1": 23,
      "2": 24,
      "3": 25,
      "4": 26,
      "5": 27,
      "6": 28,
      "7": 29,
      "8": 30,
      "9": 31,
      ":": 32,
      ";": 33,
      "<": 34,
      "=": 35,
      ">": 36,
      "?": 37,
      "@": 38,
      "A": 39,
      "B": 40,
      "C": 41,
      "D": 42,
      "E": 43,
      "F": 44,
      "G": 45,
      "H": 46,
      "I": 47,
      "J": 48,
      "K": 49,
      "L": 50,
      "M": 51,
      "N": 52,
      "O": 53,
      "P": 54,
      "Q": 55,
      "R": 56,
      "S": 57,
      "T": 58,
      "U": 59,
      "V": 60,
      "W": 61,
      "X": 62,
      "Y": 63,
      "Z": 64,
      "[": 65,
      "\\": 66,
      "]": 67,
      "^": 68,
      "_": 69,
      "`": 70,
      "a": 71,
      "b": 72,
      "c": 73,
      "d": 74,
      "e": 75,
      "f": 76,
      "g": 77,
      "h": 78,
      "i": 79,
      "j": 80,
      "k": 81,
      "l": 82,
      "m": 83,
      "n": 84,
      "o": 85,
      "p": 86,
      "q": 87,
      "r": 88,
      "s": 89,
      "t": 90,
      "u": 91,
      "v": 92,
      "w": 93,
      "x": 94,
      "y": 95,
      "z": 96,
      "{": 97,
      "|": 98,
      "}": 99,
      "~": 100,
      "": 101,
      "": 102,
      "": 103,
      "": 104,
      "¡": 105,
      "¢": 106,
      "£": 107,
      "¥": 108,
      "§": 109,
      "©": 110,
      "«": 111,
      "­": 112,
      "®": 113,
      "¯": 114,
      "°": 115,
      "±": 116,
      "²": 117,
      "³": 118,
      "´": 119,
      "µ": 120,
      "¶": 121,
      "·": 122,
      "¹": 123,
      "º": 124,
      "»": 125,
      "¼": 126,
      "½": 127,
      "¾": 128,
      "¿": 129,
      "À": 130,
      "Á": 131,
      "Â": 132,
      "Ä": 133,
      "Å": 134,
      "Æ": 135,
      "Ç": 136,
      "È": 137,
      "É": 138,
      "Ì": 139,
      "Í": 140,
      "Î": 141,
      "Ñ": 142,
      "Ó": 143,
      "Ô": 144,
      "Ö": 145,
      "×": 146,
      "Ø": 147,
      "Ú": 148,
      "Ü": 149,
      "Ý": 150,
      "Þ": 151,
      "ß": 152,
      "à": 153,
      "á": 154,
      "â": 155,
      "ã": 156,
      "ä": 157,
      "å": 158,
      "æ": 159,
      "ç": 160,
      "è": 161,
      "é": 162,
      "ê": 163,
      "ë": 164,
      "ì": 165,
      "í": 166,
      "î": 167,
      "ï": 168,
      "ð": 169,
      "ñ": 170,
      "ò": 171,
      "ó": 172,
      "ô": 173,
      "õ": 174,
      "ö": 175,
      "÷": 176,
      "ø": 177,
      "ù": 178,
      "ú": 179,
      "û": 180,
      "ü": 181,
      "ý": 182,
      "þ": 183,
      "ÿ": 184,
      "Ā": 185,
      "ā": 186,
      "ă": 187,
      "ą": 188,
      "Ć": 189,
      "ć": 190,
      "Č": 191,
      "č": 192,
      "Ď": 193,
      "Đ": 194,
      "đ": 195,
      "ē": 196,
      "ė": 197,
      "ę": 198,
      "ě": 199,
      "ğ": 200,
      "ġ": 201,
      "Ħ": 202,
      "ħ": 203,
      "ĩ": 204,
      "Ī": 205,
      "ī": 206,
      "İ": 207,
      "ı": 208,
      "ķ": 209,
      "Ľ": 210,
      "ľ": 211,
      "Ł": 212,
      "ł": 213,
      "ń": 214,
      "ņ": 215,
      "ň": 216,
      "ŋ": 217,
      "Ō": 218,
      "ō": 219,
      "ŏ": 220,
      "ő": 221,
      "Œ": 222,
      "œ": 223,
      "Ř": 224,
      "ř": 225,
      "Ś": 226,
      "ś": 227,
      "Ş": 228,
      "ş": 229,
      "Š": 230,
      "š": 231,
      "Ţ": 232,
      "ţ": 233,
      "ť": 234,
      "ũ": 235,
      "ū": 236,
      "ŭ": 237,
      "ů": 238,
      "ų": 239,
      "ŵ": 240,
      "ŷ": 241,
      "Ź": 242,
      "ź": 243,
      "Ż": 244,
      "ż": 245,
      "Ž": 246,
      "ž": 247,
      "Ə": 248,
      "ƒ": 249,
      "ơ": 250,
      "ư": 251,
      "ǂ": 252,
      "ǎ": 253,
      "ǐ": 254,
      "ǒ": 255,
      "ǔ": 256,
      "ǫ": 257,
      "Ș": 258,
      "ș": 259,
      "Ț": 260,
      "ț": 261,
      "ɐ": 262,
      "ɑ": 263,
      "ɒ": 264,
      "ɓ": 265,
      "ɔ": 266,
      "ɕ": 267,
      "ɖ": 268,
      "ɗ": 269,
      "ə": 270,
      "ɛ": 271,
      "ɟ": 272,
      "ɡ": 273,
      "ɢ": 274,
      "ɣ": 275,
      "ɦ": 276,
      "ɧ": 277,
      "ɨ": 278,
      "ɪ": 279,
      "ɬ": 280,
      "ɯ": 281,
      "ɲ": 282,
      "ɴ": 283,
      "ɵ": 284,
      "ɸ": 285,
      "ɻ": 286,
      "ɾ": 287,
      "ʀ": 288,
      "ʁ": 289,
      "ʂ": 290,
      "ʃ": 291,
      "ʇ": 292,
      "ʈ": 293,
      "ʊ": 294,
      "ʋ": 295,
      "ʌ": 296,
      "ʍ": 297,
      "ʎ": 298,
      "ʒ": 299,
      "ʔ": 300,
      "ʕ": 301,
      "ʘ": 302,
      "ʝ": 303,
      "ʟ": 304,
      "ʰ": 305,
      "ʲ": 306,
      "ʷ": 307,
      "ʻ": 308,
      "ʼ": 309,
      "ʾ": 310,
      "ʿ": 311,
      "ˀ": 312,
      "ˁ": 313,
      "ˈ": 314,
      "ˌ": 315,
      "ː": 316,
      "˔": 317,
      "˘": 318,
      "˚": 319,
      "˞": 320,
      "ˠ": 321,
      "ˤ": 322,
      "˥": 323,
      "˦": 324,
      "˧": 325,
      "˨": 326,
      "˩": 327,
      "̀": 328,
      "́": 329,
      "̂": 330,
      "̃": 331,
      "̄": 332,
      "̆": 333,
      "̈": 334,
      "̊": 335,
      "̌": 336,
      "̍": 337,
      "̐": 338,
      "̚": 339,
      "̝": 340,
      "̞": 341,
      "̟": 342,
      "̠": 343,
      "̣": 344,
      "̤": 345,
      "̥": 346,
      "̧": 347,
      "̩": 348,
      "̪": 349,
      "̯": 350,
      "̰": 351,
      "̱": 352,
      "̲": 353,
      "̺": 354,
      "̽": 355,
      "͍": 356,
      "͘": 357,
      "͜": 358,
      "͡": 359,
      "Α": 360,
      "Β": 361,
      "Γ": 362,
      "Δ": 363,
      "Ε": 364,
      "Η": 365,
      "Θ": 366,
      "Ι": 367,
      "Κ": 368,
      "Λ": 369,
      "Μ": 370,
      "Ν": 371,
      "Ξ": 372,
      "Ο": 373,
      "Π": 374,
      "Σ": 375,
      "Τ": 376,
      "Φ": 377,
      "Χ": 378,
      "Ψ": 379,
      "Ω": 380,
      "ά": 381,
      "έ": 382,
      "ή": 383,
      "ί": 384,
      "α": 385,
      "β": 386,
      "γ": 387,
      "δ": 388,
      "ε": 389,
      "ζ": 390,
      "η": 391,
      "θ": 392,
      "ι": 393,
      "κ": 394,
      "λ": 395,
      "μ": 396,
      "ν": 397,
      "ξ": 398,
      "ο": 399,
      "π": 400,
      "ρ": 401,
      "ς": 402,
      "σ": 403,
      "τ": 404,
      "υ": 405,
      "φ": 406,
      "χ": 407,
      "ψ": 408,
      "ω": 409,
      "ό": 410,
      "ύ": 411,
      "ώ": 412,
      "ϕ": 413,
      "Ј": 414,
      "А": 415,
      "Б": 416,
      "В": 417,
      "Г": 418,
      "Д": 419,
      "Е": 420,
      "З": 421,
      "И": 422,
      "Й": 423,
      "К": 424,
      "М": 425,
      "Н": 426,
      "О": 427,
      "П": 428,
      "Р": 429,
      "С": 430,
      "Т": 431,
      "Ч": 432,
      "Ш": 433,
      "Я": 434,
      "а": 435,
      "б": 436,
      "в": 437,
      "г": 438,
      "д": 439,
      "е": 440,
      "ж": 441,
      "з": 442,
      "и": 443,
      "й": 444,
      "к": 445,
      "л": 446,
      "м": 447,
      "н": 448,
      "о": 449,
      "п": 450,
      "р": 451,
      "с": 452,
      "т": 453,
      "у": 454,
      "х": 455,
      "ц": 456,
      "ч": 457,
      "ш": 458,
      "ъ": 459,
      "ы": 460,
      "ь": 461,
      "э": 462,
      "ю": 463,
      "я": 464,
      "ё": 465,
      "і": 466,
      "ј": 467,
      "љ": 468,
      "ў": 469,
      "Կ": 470,
      "Հ": 471,
      "Մ": 472,
      "Ս": 473,
      "ա": 474,
      "բ": 475,
      "ե": 476,
      "թ": 477,
      "ի": 478,
      "կ": 479,
      "հ": 480,
      "ղ": 481,
      "յ": 482,
      "ն": 483,
      "շ": 484,
      "ո": 485,
      "պ": 486,
      "ս": 487,
      "վ": 488,
      "տ": 489,
      "ր": 490,
      "ց": 491,
      "ւ": 492,
      "ք": 493,
      "֤": 494,
      "֫": 495,
      "ֵ": 496,
      "ֶ": 497,
      "ּ": 498,
      "א": 499,
      "ב": 500,
      "ג": 501,
      "ד": 502,
      "ו": 503,
      "ח": 504,
      "י": 505,
      "כ": 506,
      "ל": 507,
      "ם": 508,
      "מ": 509,
      "ן": 510,
      "נ": 511,
      "ס": 512,
      "ע": 513,
      "צ": 514,
      "ר": 515,
      "ש": 516,
      "ת": 517,
      "،": 518,
      "ء": 519,
      "أ": 520,
      "إ": 521,
      "ا": 522,
      "ب": 523,
      "ة": 524,
      "ت": 525,
      "ث": 526,
      "ج": 527,
      "ح": 528,
      "خ": 529,
      "د": 530,
      "ر": 531,
      "ز": 532,
      "س": 533,
      "ش": 534,
      "ص": 535,
      "ط": 536,
      "ع": 537,
      "غ": 538,
      "ف": 539,
      "ق": 540,
      "ك": 541,
      "ل": 542,
      "م": 543,
      "ن": 544,
      "ه": 545,
      "و": 546,
      "ي": 547,
      "ی": 548,
      "ं": 549,
      "अ": 550,
      "आ": 551,
      "उ": 552,
      "क": 553,
      "ग": 554,
      "ट": 555,
      "ड": 556,
      "त": 557,
      "द": 558,
      "न": 559,
      "प": 560,
      "ब": 561,
      "भ": 562,
      "म": 563,
      "य": 564,
      "र": 565,
      "ल": 566,
      "श": 567,
      "ष": 568,
      "स": 569,
      "ह": 570,
      "़": 571,
      "ा": 572,
      "ि": 573,
      "ी": 574,
      "ु": 575,
      "े": 576,
      "ो": 577,
      "्": 578,
      "।": 579,
      "॥": 580,
      "ক": 581,
      "ত": 582,
      "ন": 583,
      "ব": 584,
      "ম": 585,
      "ল": 586,
      "়": 587,
      "া": 588,
      "ি": 589,
      "্": 590,
      "க": 591,
      "ன": 592,
      "ள": 593,
      "்": 594,
      "్": 595,
      "್": 596,
      "്": 597,
      "්": 598,
      "ก": 599,
      "ข": 600,
      "ง": 601,
      "จ": 602,
      "ช": 603,
      "ฐ": 604,
      "ณ": 605,
      "ต": 606,
      "ท": 607,
      "น": 608,
      "ป": 609,
      "พ": 610,
      "ม": 611,
      "ย": 612,
      "ร": 613,
      "ล": 614,
      "ว": 615,
      "ะ": 616,
      "ั": 617,
      "า": 618,
      "ิ": 619,
      "ี": 620,
      "ู": 621,
      "฿": 622,
      "เ": 623,
      "แ": 624,
      "็": 625,
      "่": 626,
      "้": 627,
      "์": 628,
      "་": 629,
      "།": 630,
      "င": 631,
      "ဆ": 632,
      "န": 633,
      "ရ": 634,
      "္": 635,
      "်": 636,
      "გ": 637,
      "დ": 638,
      "ვ": 639,
      "ზ": 640,
      "ი": 641,
      "კ": 642,
      "ო": 643,
      "რ": 644,
      "ს": 645,
      "უ": 646,
      "ც": 647,
      "ძ": 648,
      "წ": 649,
      "ხ": 650,
      "ჯ": 651,
      "჻": 652,
      "፡": 653,
      "ᛃ": 654,
      "ᛋ": 655,
      "ᛟ": 656,
      "ត": 657,
      "ន": 658,
      "ព": 659,
      "ម": 660,
      "រ": 661,
      "ស": 662,
      "ហ": 663,
      "ី": 664,
      "ុ": 665,
      "ោ": 666,
      "ះ": 667,
      "់": 668,
      "្": 669,
      "᷉": 670,
      "ḍ": 671,
      "ḑ": 672,
      "Ḥ": 673,
      "ḥ": 674,
      "ḩ": 675,
      "ḷ": 676,
      "ḻ": 677,
      "ṃ": 678,
      "ṅ": 679,
      "ṇ": 680,
      "ṉ": 681,
      "ṛ": 682,
      "ṟ": 683,
      "Ṣ": 684,
      "ṣ": 685,
      "ṭ": 686,
      "ṯ": 687,
      "ạ": 688,
      "ả": 689,
      "ấ": 690,
      "ầ": 691,
      "ẩ": 692,
      "ẫ": 693,
      "ậ": 694,
      "ắ": 695,
      "ằ": 696,
      "ẵ": 697,
      "ặ": 698,
      "ẹ": 699,
      "ế": 700,
      "ề": 701,
      "ể": 702,
      "ễ": 703,
      "ệ": 704,
      "ị": 705,
      "Ọ": 706,
      "ọ": 707,
      "ỏ": 708,
      "ố": 709,
      "ồ": 710,
      "ổ": 711,
      "ỗ": 712,
      "ộ": 713,
      "ớ": 714,
      "ờ": 715,
      "ở": 716,
      "ợ": 717,
      "ụ": 718,
      "ủ": 719,
      "ứ": 720,
      "ừ": 721,
      "ử": 722,
      "ữ": 723,
      "ự": 724,
      "ỳ": 725,
      "ỵ": 726,
      "ỹ": 727,
      "ἀ": 728,
      "ἄ": 729,
      "Ἀ": 730,
      "ἐ": 731,
      "Ἕ": 732,
      "ἡ": 733,
      "Ἠ": 734,
      "ἰ": 735,
      "ἱ": 736,
      "ἵ": 737,
      "ἶ": 738,
      "Ἰ": 739,
      "ὁ": 740,
      "Ὄ": 741,
      "ὐ": 742,
      "ὑ": 743,
      "ὡ": 744,
      "ὰ": 745,
      "ὲ": 746,
      "ὴ": 747,
      "ὶ": 748,
      "ὸ": 749,
      "ὺ": 750,
      "ὼ": 751,
      "ᾶ": 752,
      "ῆ": 753,
      "ῖ": 754,
      "ῦ": 755,
      "Ῥ": 756,
      "ῶ": 757,
      "ῷ": 758,
      "​": 759,
      "‌": 760,
      "‍": 761,
      "‐": 762,
      "‑": 763,
      "‒": 764,
      "–": 765,
      "—": 766,
      "―": 767,
      "‘": 768,
      "’": 769,
      "‚": 770,
      "“": 771,
      "”": 772,
      "„": 773,
      "†": 774,
      "‡": 775,
      "•": 776,
      "…": 777,
      "‰": 778,
      "′": 779,
      "″": 780,
      "※": 781,
      "‼": 782,
      "‿": 783,
      "⁄": 784,
      "⁊": 785,
      "⁡": 786,
      "⁺": 787,
      "₁": 788,
      "₂": 789,
      "₃": 790,
      "₡": 791,
      "₣": 792,
      "₤": 793,
      "₦": 794,
      "₨": 795,
      "₩": 796,
      "₫": 797,
      "€": 798,
      "₱": 799,
      "₹": 800,
      "℃": 801,
      "ℓ": 802,
      "№": 803,
      "™": 804,
      "⅓": 805,
      "⅔": 806,
      "⅛": 807,
      "⅜": 808,
      "⅝": 809,
      "⅞": 810,
      "←": 811,
      "↑": 812,
      "→": 813,
      "↓": 814,
      "↔": 815,
      "↗": 816,
      "↦": 817,
      "↪": 818,
      "⇄": 819,
      "⇌": 820,
      "∀": 821,
      "∂": 822,
      "∆": 823,
      "∈": 824,
      "∑": 825,
      "−": 826,
      "∕": 827,
      "∖": 828,
      "∗": 829,
      "∘": 830,
      "√": 831,
      "∝": 832,
      "∞": 833,
      "∩": 834,
      "∪": 835,
      "∴": 836,
      "∼": 837,
      "≈": 838,
      "≠": 839,
      "≡": 840,
      "≢": 841,
      "≤": 842,
      "≥": 843,
      "≪": 844,
      "⊂": 845,
      "⊕": 846,
      "⊗": 847,
      "⊙": 848,
      "⊥": 849,
      "⋅": 850,
      "⋯": 851,
      "⌊": 852,
      "⌋": 853,
      "①": 854,
      "②": 855,
      "④": 856,
      "█": 857,
      "▲": 858,
      "★": 859,
      "☆": 860,
      "☉": 861,
      "♀": 862,
      "♠": 863,
      "♣": 864,
      "♥": 865,
      "♦": 866,
      "♩": 867,
      "♪": 868,
      "♭": 869,
      "♮": 870,
      "♯": 871,
      "⟦": 872,
      "⟧": 873,
      "⟨": 874,
      "⟩": 875,
      "⩽": 876,
      "ⴷ": 877,
      "、": 878,
      "。": 879,
      "〈": 880,
      "〉": 881,
      "「": 882,
      "」": 883,
      "『": 884,
      "』": 885,
      "〜": 886,
      "あ": 887,
      "い": 888,
      "ぅ": 889,
      "う": 890,
      "お": 891,
      "か": 892,
      "が": 893,
      "き": 894,
      "く": 895,
      "ぐ": 896,
      "こ": 897,
      "さ": 898,
      "し": 899,
      "じ": 900,
      "す": 901,
      "ず": 902,
      "せ": 903,
      "た": 904,
      "ち": 905,
      "つ": 906,
      "て": 907,
      "と": 908,
      "ど": 909,
      "な": 910,
      "の": 911,
      "は": 912,
      "ば": 913,
      "ふ": 914,
      "へ": 915,
      "ぽ": 916,
      "ま": 917,
      "み": 918,
      "め": 919,
      "よ": 920,
      "ら": 921,
      "り": 922,
      "る": 923,
      "ん": 924,
      "ァ": 925,
      "ア": 926,
      "ィ": 927,
      "イ": 928,
      "ウ": 929,
      "ェ": 930,
      "エ": 931,
      "ォ": 932,
      "オ": 933,
      "カ": 934,
      "ガ": 935,
      "キ": 936,
      "ギ": 937,
      "ク": 938,
      "グ": 939,
      "ケ": 940,
      "コ": 941,
      "ゴ": 942,
      "サ": 943,
      "ザ": 944,
      "シ": 945,
      "ジ": 946,
      "ス": 947,
      "ズ": 948,
      "セ": 949,
      "ゼ": 950,
      "ソ": 951,
      "タ": 952,
      "ダ": 953,
      "チ": 954,
      "ッ": 955,
      "ツ": 956,
      "テ": 957,
      "デ": 958,
      "ト": 959,
      "ド": 960,
      "ナ": 961,
      "ニ": 962,
      "ノ": 963,
      "ハ": 964,
      "バ": 965,
      "パ": 966,
      "ヒ": 967,
      "ビ": 968,
      "フ": 969,
      "ブ": 970,
      "プ": 971,
      "ベ": 972,
      "ペ": 973,
      "ボ": 974,
      "ポ": 975,
      "マ": 976,
      "ミ": 977,
      "ム": 978,
      "メ": 979,
      "モ": 980,
      "ャ": 981,
      "ヤ": 982,
      "ュ": 983,
      "ユ": 984,
      "ョ": 985,
      "ラ": 986,
      "リ": 987,
      "ル": 988,
      "レ": 989,
      "ロ": 990,
      "ワ": 991,
      "ン": 992,
      "ヴ": 993,
      "・": 994,
      "ー": 995,
      "一": 996,
      "三": 997,
      "上": 998,
      "下": 999,
      "不": 1000,
      "丑": 1001,
      "世": 1002,
      "个": 1003,
      "久": 1004,
      "之": 1005,
      "乙": 1006,
      "二": 1007,
      "五": 1008,
      "亦": 1009,
      "京": 1010,
      "人": 1011,
      "介": 1012,
      "仙": 1013,
      "令": 1014,
      "伝": 1015,
      "住": 1016,
      "佛": 1017,
      "作": 1018,
      "併": 1019,
      "侠": 1020,
      "個": 1021,
      "催": 1022,
      "像": 1023,
      "光": 1024,
      "内": 1025,
      "写": 1026,
      "冴": 1027,
      "净": 1028,
      "凪": 1029,
      "分": 1030,
      "列": 1031,
      "刘": 1032,
      "初": 1033,
      "判": 1034,
      "別": 1035,
      "前": 1036,
      "剛": 1037,
      "剣": 1038,
      "劇": 1039,
      "動": 1040,
      "勝": 1041,
      "北": 1042,
      "匹": 1043,
      "千": 1044,
      "卒": 1045,
      "南": 1046,
      "博": 1047,
      "厘": 1048,
      "双": 1049,
      "台": 1050,
      "号": 1051,
      "同": 1052,
      "名": 1053,
      "君": 1054,
      "呼": 1055,
      "哈": 1056,
      "四": 1057,
      "回": 1058,
      "国": 1059,
      "國": 1060,
      "土": 1061,
      "坂": 1062,
      "場": 1063,
      "境": 1064,
      "士": 1065,
      "外": 1066,
      "大": 1067,
      "天": 1068,
      "太": 1069,
      "女": 1070,
      "姉": 1071,
      "婷": 1072,
      "子": 1073,
      "字": 1074,
      "季": 1075,
      "孩": 1076,
      "守": 1077,
      "宋": 1078,
      "宗": 1079,
      "寔": 1080,
      "寺": 1081,
      "小": 1082,
      "少": 1083,
      "尾": 1084,
      "巨": 1085,
      "廷": 1086,
      "式": 1087,
      "弘": 1088,
      "张": 1089,
      "張": 1090,
      "彼": 1091,
      "後": 1092,
      "心": 1093,
      "思": 1094,
      "愛": 1095,
      "憲": 1096,
      "戦": 1097,
      "房": 1098,
      "所": 1099,
      "撃": 1100,
      "攻": 1101,
      "新": 1102,
      "方": 1103,
      "日": 1104,
      "旦": 1105,
      "早": 1106,
      "星": 1107,
      "春": 1108,
      "時": 1109,
      "書": 1110,
      "月": 1111,
      "朝": 1112,
      "木": 1113,
      "本": 1114,
      "李": 1115,
      "杜": 1116,
      "束": 1117,
      "条": 1118,
      "東": 1119,
      "松": 1120,
      "枚": 1121,
      "條": 1122,
      "植": 1123,
      "椎": 1124,
      "楽": 1125,
      "様": 1126,
      "機": 1127,
      "正": 1128,
      "武": 1129,
      "歩": 1130,
      "死": 1131,
      "殻": 1132,
      "氏": 1133,
      "民": 1134,
      "気": 1135,
      "氣": 1136,
      "水": 1137,
      "氷": 1138,
      "氾": 1139,
      "法": 1140,
      "活": 1141,
      "流": 1142,
      "浅": 1143,
      "海": 1144,
      "溜": 1145,
      "瀬": 1146,
      "火": 1147,
      "無": 1148,
      "版": 1149,
      "特": 1150,
      "王": 1151,
      "瓦": 1152,
      "生": 1153,
      "用": 1154,
      "田": 1155,
      "町": 1156,
      "界": 1157,
      "畫": 1158,
      "皮": 1159,
      "真": 1160,
      "礮": 1161,
      "神": 1162,
      "秋": 1163,
      "積": 1164,
      "空": 1165,
      "章": 1166,
      "箇": 1167,
      "節": 1168,
      "米": 1169,
      "約": 1170,
      "紋": 1171,
      "綾": 1172,
      "緑": 1173,
      "編": 1174,
      "群": 1175,
      "羽": 1176,
      "耕": 1177,
      "聖": 1178,
      "肖": 1179,
      "膺": 1180,
      "芝": 1181,
      "花": 1182,
      "草": 1183,
      "莊": 1184,
      "蛍": 1185,
      "街": 1186,
      "裁": 1187,
      "装": 1188,
      "西": 1189,
      "見": 1190,
      "語": 1191,
      "説": 1192,
      "議": 1193,
      "词": 1194,
      "谷": 1195,
      "路": 1196,
      "軍": 1197,
      "転": 1198,
      "輝": 1199,
      "逆": 1200,
      "進": 1201,
      "道": 1202,
      "遠": 1203,
      "邪": 1204,
      "部": 1205,
      "野": 1206,
      "量": 1207,
      "金": 1208,
      "銀": 1209,
      "銖": 1210,
      "錬": 1211,
      "隊": 1212,
      "隴": 1213,
      "隻": 1214,
      "雄": 1215,
      "集": 1216,
      "雪": 1217,
      "零": 1218,
      "靈": 1219,
      "青": 1220,
      "韓": 1221,
      "風": 1222,
      "鬼": 1223,
      "魂": 1224,
      "魄": 1225,
      "魔": 1226,
      "鼓": 1227,
      "거": 1228,
      "루": 1229,
      "마": 1230,
      "막": 1231,
      "말": 1232,
      "사": 1233,
      "인": 1234,
      "전": 1235,
      "지": 1236,
      "짓": 1237,
      "투": 1238,
      "하": 1239,
      "ﬁ": 1240,
      "﻿": 1241,
      "！": 1242,
      "＆": 1243,
      "（": 1244,
      "）": 1245,
      "，": 1246,
      "－": 1247,
      "：": 1248,
      "＝": 1249,
      "？": 1250,
      "～": 1251,
      "｢": 1252,
      "･": 1253,
      "￥": 1254,
      "th": 1255,
      "in": 1256,
      "er": 1257,
      "an": 1258,
      "the": 1259,
      "on": 1260,
      "ed": 1261,
      "re": 1262,
      "at": 1263,
      "en": 1264,
      "or": 1265,
      "al": 1266,
      "st": 1267,
      "ar": 1268,
      "and": 1269,
      "as": 1270,
      "of": 1271,
      "ing": 1272,
      "es": 1273,
      "to": 1274,
      "is": 1275,
      "it": 1276,
      "ou": 1277,
      "ic": 1278,
      "ion": 1279,
      "le": 1280,
      "he": 1281,
      "ro": 1282,
      "il": 1283,
      "ac": 1284,
      "ent": 1285,
      "ad": 1286,
      "se": 1287,
      "un": 1288,
      "am": 1289,
      "om": 1290,
      "be": 1291,
      "ly": 1292,
      "was": 1293,
      "for": 1294,
      "ch": 1295,
      "ve": 1296,
      "de": 1297,
      "ur": 1298,
      "ol": 1299,
      "ir": 1300,
      "The": 1301,
      "im": 1302,
      "-@": 1303,
      "@-@": 1304,
      "ig": 1305,
      "ver": 1306,
      "ter": 1307,
      "wh": 1308,
      "ow": 1309,
      "ith": 1310,
      "ce": 1311,
      "ay": 1312,
      "con": 1313,
      "id": 1314,
      "ation": 1315,
      "ct": 1316,
      "with": 1317,
      "that": 1318,
      "ag": 1319,
      "te": 1320,
      "by": 1321,
      "us": 1322,
      "ot": 1323,
      "ere": 1324,
      "el": 1325,
      "ri": 1326,
      "ul": 1327,
      "ap": 1328,
      "ut": 1329,
      "19": 1330,
      "et": 1331,
      "res": 1332,
      "ain": 1333,
      "ers": 1334,
      "op": 1335,
      "pl": 1336,
      "com": 1337,
      "his": 1338,
      "rom": 1339,
      "um": 1340,
      "all": 1341,
      "00": 1342,
      "oun": 1343,
      "ab": 1344,
      "unk": 1345,
      "mo": 1346,
      "ist": 1347,
      "su": 1348,
      "ne": 1349,
      "pro": 1350,
      "sh": 1351,
      "from": 1352,
      "pe": 1353,
      "In": 1354,
      "cl": 1355,
      "ate": 1356,
      "are": 1357,
      "art": 1358,
      "li": 1359,
      "tr": 1360,
      "ther": 1361,
      "igh": 1362,
      "os": 1363,
      "di": 1364,
      "em": 1365,
      "ex": 1366,
      "ber": 1367,
      "est": 1368,
      "ich": 1369,
      "were": 1370,
      "ld": 1371,
      "ard": 1372,
      "ill": 1373,
      "oc": 1374,
      "ak": 1375,
      "ast": 1376,
      "ies": 1377,
      "ant": 1378,
      "ong": 1379,
      "per": 1380,
      "qu": 1381,
      "gh": 1382,
      "ment": 1383,
      "ated": 1384,
      "ive": 1385,
      "out": 1386,
      "man": 1387,
      "ame": 1388,
      "ity": 1389,
      "fe": 1390,
      "ess": 1391,
      "our": 1392,
      "had": 1393,
      "od": 1394,
      "end": 1395,
      "ish": 1396,
      "ack": 1397,
      "ort": 1398,
      "one": 1399,
      "als": 1400,
      "ear": 1401,
      "av": 1402,
      "over": 1403,
      "ge": 1404,
      "tw": 1405,
      "af": 1406,
      "which": 1407,
      "ip": 1408,
      "ough": 1409,
      "ound": 1410,
      "but": 1411,
      "not": 1412,
      "vi": 1413,
      "act": 1414,
      "gr": 1415,
      "ass": 1416,
      "ord": 1417,
      "ally": 1418,
      "ave": 1419,
      "str": 1420,
      "ight": 1421,
      "ine": 1422,
      "her": 1423,
      "ary": 1424,
      "rit": 1425,
      "its": 1426,
      "du": 1427,
      "iv": 1428,
      "ud": 1429,
      "pr": 1430,
      "ep": 1431,
      "ian": 1432,
      "if": 1433,
      "St": 1434,
      "Ch": 1435,
      "ore": 1436,
      "20": 1437,
      "fir": 1438,
      "200": 1439,
      "up": 1440,
      "ew": 1441,
      "ould": 1442,
      "ia": 1443,
      "ous": 1444,
      "own": 1445,
      "der": 1446,
      "au": 1447,
      "bo": 1448,
      "bl": 1449,
      "aw": 1450,
      "ction": 1451,
      "wor": 1452,
      "comp": 1453,
      "ev": 1454,
      "ach": 1455,
      "age": 1456,
      "ke": 1457,
      "att": 1458,
      "first": 1459,
      "land": 1460,
      "port": 1461,
      "ign": 1462,
      "ition": 1463,
      "form": 1464,
      "their": 1465,
      "si": 1466,
      "ical": 1467,
      "low": 1468,
      "sc": 1469,
      "lo": 1470,
      "ial": 1471,
      "ser": 1472,
      "tim": 1473,
      "ater": 1474,
      "po": 1475,
      "ll": 1476,
      "also": 1477,
      "He": 1478,
      "who": 1479,
      "br": 1480,
      "part": 1481,
      "int": 1482,
      "ure": 1483,
      "18": 1484,
      "has": 1485,
      "other": 1486,
      "rec": 1487,
      "have": 1488,
      "play": 1489,
      "ome": 1490,
      "ans": 1491,
      "pt": 1492,
      "ust": 1493,
      "cont": 1494,
      "off": 1495,
      "ree": 1496,
      "ok": 1497,
      ".@": 1498,
      "@.@": 1499,
      "two": 1500,
      "ile": 1501,
      "ence": 1502,
      "pres": 1503,
      "uring": 1504,
      "been": 1505,
      "me": 1506,
      "ice": 1507,
      "ance": 1508,
      "we": 1509,
      "mer": 1510,
      ",@": 1511,
      "@,@": 1512,
      "dis": 1513,
      "201": 1514,
      "pos": 1515,
      "Th": 1516,
      "It": 1517,
      "this": 1518,
      "ory": 1519,
      "year": 1520,
      "after": 1521,
      "ren": 1522,
      "ph": 1523,
      "ult": 1524,
      "cre": 1525,
      "des": 1526,
      "ell": 1527,
      "ace": 1528,
      "ved": 1529,
      "fin": 1530,
      "ark": 1531,
      "ade": 1532,
      "they": 1533,
      "An": 1534,
      "able": 1535,
      "mon": 1536,
      "co": 1537,
      "sp": 1538,
      "incl": 1539,
      "ue": 1540,
      "ite": 1541,
      "ail": 1542,
      "Un": 1543,
      "ever": 1544,
      "work": 1545,
      "ang": 1546,
      "sion": 1547,
      "air": 1548,
      "ff": 1549,
      "time": 1550,
      "inter": 1551,
      "urn": 1552,
      "would": 1553,
      "ations": 1554,
      "ship": 1555,
      "pre": 1556,
      "og": 1557,
      "ced": 1558,
      "into": 1559,
      "cent": 1560,
      "him": 1561,
      "cr": 1562,
      "iz": 1563,
      "ick": 1564,
      "vel": 1565,
      "spe": 1566,
      "she": 1567,
      "mber": 1568,
      "ict": 1569,
      "ates": 1570,
      "no": 1571,
      "ie": 1572,
      "ased": 1573,
      "more": 1574,
      "ited": 1575,
      "ilm": 1576,
      "min": 1577,
      "old": 1578,
      "way": 1579,
      "ty": 1580,
      "ire": 1581,
      "most": 1582,
      "ces": 1583,
      "new": 1584,
      "amp": 1585,
      "son": 1586,
      "fore": 1587,
      "main": 1588,
      "Ar": 1589,
      "bec": 1590,
      "Al": 1591,
      "ry": 1592,
      "any": 1593,
      "ten": 1594,
      "ase": 1595,
      "ret": 1596,
      "used": 1597,
      "ason": 1598,
      "fl": 1599,
      "ann": 1600,
      "ood": 1601,
      "includ": 1602,
      "cond": 1603,
      "cted": 1604,
      "cess": 1605,
      "ings": 1606,
      "ran": 1607,
      "ind": 1608,
      "vis": 1609,
      "ors": 1610,
      "red": 1611,
      "when": 1612,
      "film": 1613,
      "day": 1614,
      "les": 1615,
      "ted": 1616,
      "ered": 1617,
      "rough": 1618,
      "ath": 1619,
      "ild": 1620,
      "comm": 1621,
      "ward": 1622,
      "ton": 1623,
      "col": 1624,
      "ake": 1625,
      "ican": 1626,
      "Mar": 1627,
      "Au": 1628,
      "ob": 1629,
      "bu": 1630,
      "though": 1631,
      "gan": 1632,
      "ts": 1633,
      "een": 1634,
      "ions": 1635,
      "reg": 1636,
      "sy": 1637,
      "ens": 1638,
      "Wh": 1639,
      "during": 1640,
      "ra": 1641,
      "than": 1642,
      "Re": 1643,
      "On": 1644,
      "De": 1645,
      "again": 1646,
      "game": 1647,
      "ose": 1648,
      "so": 1649,
      "under": 1650,
      "ble": 1651,
      "ubl": 1652,
      "gen": 1653,
      "nor": 1654,
      "char": 1655,
      "produ": 1656,
      "199": 1657,
      "only": 1658,
      "ck": 1659,
      "ollow": 1660,
      "them": 1661,
      "about": 1662,
      "row": 1663,
      "can": 1664,
      "ents": 1665,
      "while": 1666,
      "New": 1667,
      "ide": 1668,
      "ational": 1669,
      "some": 1670,
      "song": 1671,
      "En": 1672,
      "rele": 1673,
      "later": 1674,
      "oy": 1675,
      "led": 1676,
      "tween": 1677,
      "outh": 1678,
      "between": 1679,
      "ele": 1680,
      "sing": 1681,
      "three": 1682,
      "10": 1683,
      "ating": 1684,
      "Af": 1685,
      "where": 1686,
      "through": 1687,
      "num": 1688,
      "ron": 1689,
      "coun": 1690,
      "aid": 1691,
      "As": 1692,
      "season": 1693,
      "ics": 1694,
      "view": 1695,
      "ful": 1696,
      "lar": 1697,
      "cons": 1698,
      "Amer": 1699,
      "my": 1700,
      "tain": 1701,
      "ern": 1702,
      "writ": 1703,
      "stru": 1704,
      "sub": 1705,
      "ied": 1706,
      "then": 1707,
      "rel": 1708,
      "iver": 1709,
      "kn": 1710,
      "000": 1711,
      "ular": 1712,
      "dr": 1713,
      "Le": 1714,
      "ters": 1715,
      "Jo": 1716,
      "second": 1717,
      "high": 1718,
      "sel": 1719,
      "made": 1720,
      "med": 1721,
      "set": 1722,
      "Com": 1723,
      "ef": 1724,
      "ames": 1725,
      "bum": 1726,
      "record": 1727,
      "four": 1728,
      "follow": 1729,
      "do": 1730,
      "spec": 1731,
      "go": 1732,
      "such": 1733,
      "loc": 1734,
      "17": 1735,
      "sur": 1736,
      "ished": 1737,
      "cap": 1738,
      "arri": 1739,
      "eng": 1740,
      "ub": 1741,
      "before": 1742,
      "atch": 1743,
      "No": 1744,
      "back": 1745,
      "there": 1746,
      "cur": 1747,
      "team": 1748,
      "well": 1749,
      "mus": 1750,
      "15": 1751,
      "years": 1752,
      "iel": 1753,
      "appe": 1754,
      "cho": 1755,
      "ven": 1756,
      "ma": 1757,
      "add": 1758,
      "inn": 1759,
      "This": 1760,
      "ident": 1761,
      "sup": 1762,
      "ks": 1763,
      "pol": 1764,
      "album": 1765,
      "Con": 1766,
      "ific": 1767,
      "publ": 1768,
      "ros": 1769,
      "reat": 1770,
      "owever": 1771,
      "ily": 1772,
      "call": 1773,
      "..": 1774,
      "je": 1775,
      "fer": 1776,
      "tem": 1777,
      "Nor": 1778,
      "Sh": 1779,
      "gu": 1780,
      "ual": 1781,
      "ative": 1782,
      "many": 1783,
      "being": 1784,
      "point": 1785,
      "unt": 1786,
      "epis": 1787,
      "ale": 1788,
      "uary": 1789,
      "oup": 1790,
      "ond": 1791,
      "ince": 1792,
      "ode": 1793,
      "velop": 1794,
      "against": 1795,
      "At": 1796,
      "number": 1797,
      "ury": 1798,
      "use": 1799,
      "ped": 1800,
      "side": 1801,
      "lead": 1802,
      "ins": 1803,
      "show": 1804,
      "charac": 1805,
      "After": 1806,
      "ft": 1807,
      "sever": 1808,
      "Be": 1809,
      "mem": 1810,
      "16": 1811,
      "ause": 1812,
      "war": 1813,
      "par": 1814,
      "appear": 1815,
      "long": 1816,
      "found": 1817,
      "rece": 1818,
      "ious": 1819,
      "became": 1820,
      "12": 1821,
      "Brit": 1822,
      "ash": 1823,
      "including": 1824,
      "like": 1825,
      "United": 1826,
      "serv": 1827,
      "io": 1828,
      "both": 1829,
      "hn": 1830,
      "ese": 1831,
      "orn": 1832,
      "series": 1833,
      "Se": 1834,
      "198": 1835,
      "feat": 1836,
      "ise": 1837,
      "cy": 1838,
      "ost": 1839,
      "line": 1840,
      "cri": 1841,
      "mi": 1842,
      "igin": 1843,
      "194": 1844,
      "did": 1845,
      "ended": 1846,
      "She": 1847,
      "eral": 1848,
      "develop": 1849,
      "rop": 1850,
      "tri": 1851,
      "mill": 1852,
      "contin": 1853,
      "ments": 1854,
      "dire": 1855,
      "ley": 1856,
      "cer": 1857,
      "ities": 1858,
      "ures": 1859,
      "down": 1860,
      "ock": 1861,
      "Eng": 1862,
      "suc": 1863,
      "pop": 1864,
      "30": 1865,
      "diff": 1866,
      "head": 1867,
      "John": 1868,
      "dec": 1869,
      "road": 1870,
      "run": 1871,
      "pass": 1872,
      "az": 1873,
      "episode": 1874,
      "ird": 1875,
      "uch": 1876,
      "War": 1877,
      "said": 1878,
      "leg": 1879,
      "west": 1880,
      "ouse": 1881,
      "Wor": 1882,
      "could": 1883,
      "por": 1884,
      "ress": 1885,
      "erson": 1886,
      "several": 1887,
      "mis": 1888,
      "American": 1889,
      "known": 1890,
      "peri": 1891,
      "Ro": 1892,
      "origin": 1893,
      "vid": 1894,
      "vol": 1895,
      "lin": 1896,
      "ield": 1897,
      "197": 1898,
      "che": 1899,
      "comple": 1900,
      "arch": 1901,
      "rest": 1902,
      "ised": 1903,
      "196": 1904,
      "14": 1905,
      "II": 1906,
      "cord": 1907,
      "For": 1908,
      "ually": 1909,
      "sign": 1910,
      "self": 1911,
      "music": 1912,
      "Gr": 1913,
      "stem": 1914,
      "car": 1915,
      "remain": 1916,
      "return": 1917,
      "bed": 1918,
      "cept": 1919,
      "began": 1920,
      "oper": 1921,
      "design": 1922,
      "Ger": 1923,
      "try": 1924,
      "Br": 1925,
      "ste": 1926,
      "ting": 1927,
      "ople": 1928,
      "chool": 1929,
      "sm": 1930,
      "state": 1931,
      "early": 1932,
      "13": 1933,
      "aking": 1934,
      "hel": 1935,
      "ah": 1936,
      "cover": 1937,
      "released": 1938,
      "near": 1939,
      "dist": 1940,
      "ball": 1941,
      "ived": 1942,
      "descri": 1943,
      "Col": 1944,
      "until": 1945,
      "US": 1946,
      "called": 1947,
      "ject": 1948,
      "une": 1949,
      "success": 1950,
      "open": 1951,
      "present": 1952,
      "plac": 1953,
      "trans": 1954,
      "men": 1955,
      "Sc": 1956,
      "Tr": 1957,
      "fam": 1958,
      "arr": 1959,
      "hist": 1960,
      "ross": 1961,
      "olog": 1962,
      "May": 1963,
      "king": 1964,
      "hy": 1965,
      "offic": 1966,
      "get": 1967,
      "band": 1968,
      "ially": 1969,
      "crit": 1970,
      "overn": 1971,
      "gg": 1972,
      "val": 1973,
      "group": 1974,
      "gust": 1975,
      "less": 1976,
      "ists": 1977,
      "may": 1978,
      "along": 1979,
      "vent": 1980,
      "ves": 1981,
      "ms": 1982,
      "50": 1983,
      "nam": 1984,
      "bers": 1985,
      "million": 1986,
      "ower": 1987,
      "Cl": 1988,
      "mil": 1989,
      "British": 1990,
      "tow": 1991,
      "jor": 1992,
      "xt": 1993,
      "ving": 1994,
      "Sep": 1995,
      "sim": 1996,
      "bre": 1997,
      "cast": 1998,
      "these": 1999,
      "met": 2000,
      "come": 2001,
      "enn": 2002,
      "fect": 2003,
      "ather": 2004,
      "ric": 2005,
      "ized": 2006,
      "attack": 2007,
      "oci": 2008,
      "cut": 2009,
      "tember": 2010,
      "cle": 2011,
      "Wil": 2012,
      "national": 2013,
      "stral": 2014,
      "Sp": 2015,
      "now": 2016,
      "September": 2017,
      "August": 2018,
      "World": 2019,
      "ured": 2020,
      "States": 2021,
      "requ": 2022,
      "stor": 2023,
      "let": 2024,
      "took": 2025,
      "batt": 2026,
      "continu": 2027,
      "large": 2028,
      "same": 2029,
      "people": 2030,
      "Ju": 2031,
      "dep": 2032,
      "character": 2033,
      "oot": 2034,
      "und": 2035,
      "because": 2036,
      "vide": 2037,
      "Car": 2038,
      "ib": 2039,
      "light": 2040,
      "var": 2041,
      "grap": 2042,
      "position": 2043,
      "read": 2044,
      "11": 2045,
      "ism": 2046,
      "result": 2047,
      "around": 2048,
      "ired": 2049,
      "Oc": 2050,
      "start": 2051,
      "Is": 2052,
      "km": 2053,
      "aving": 2054,
      "class": 2055,
      "ctor": 2056,
      "wee": 2057,
      "ivers": 2058,
      "Bl": 2059,
      "Jan": 2060,
      "sk": 2061,
      "Ad": 2062,
      "cour": 2063,
      "aim": 2064,
      "Austral": 2065,
      "pon": 2066,
      "formed": 2067,
      "support": 2068,
      "oth": 2069,
      "vision": 2070,
      "mark": 2071,
      "la": 2072,
      "build": 2073,
      "ca": 2074,
      "following": 2075,
      "inc": 2076,
      "north": 2077,
      "life": 2078,
      "allow": 2079,
      "ants": 2080,
      "six": 2081,
      "system": 2082,
      "tal": 2083,
      "However": 2084,
      "ork": 2085,
      "ison": 2086,
      "track": 2087,
      "Octo": 2088,
      "Pl": 2089,
      "prom": 2090,
      "consid": 2091,
      "aft": 2092,
      "each": 2093,
      "received": 2094,
      "urch": 2095,
      "October": 2096,
      "rist": 2097,
      "will": 2098,
      "ime": 2099,
      "ained": 2100,
      "ium": 2101,
      "Pr": 2102,
      "West": 2103,
      "place": 2104,
      "ility": 2105,
      "very": 2106,
      "ys": 2107,
      "govern": 2108,
      "ax": 2109,
      "sol": 2110,
      "thern": 2111,
      "liam": 2112,
      "five": 2113,
      "ling": 2114,
      "just": 2115,
      "ru": 2116,
      "area": 2117,
      "stand": 2118,
      "right": 2119,
      "century": 2120,
      "ars": 2121,
      "wards": 2122,
      "appro": 2123,
      "They": 2124,
      "def": 2125,
      "partic": 2126,
      "match": 2127,
      "ately": 2128,
      "report": 2129,
      "city": 2130,
      "North": 2131,
      "By": 2132,
      "York": 2133,
      "rote": 2134,
      "ple": 2135,
      "public": 2136,
      "world": 2137,
      "June": 2138,
      "contro": 2139,
      "book": 2140,
      "giv": 2141,
      "tle": 2142,
      "top": 2143,
      "small": 2144,
      "major": 2145,
      "ked": 2146,
      "cording": 2147,
      "King": 2148,
      "jo": 2149,
      "ground": 2150,
      "July": 2151,
      "field": 2152,
      "ina": 2153,
      "Nove": 2154,
      "last": 2155,
      "Can": 2156,
      "November": 2157,
      "played": 2158,
      "organ": 2159,
      "what": 2160,
      "ger": 2161,
      "turn": 2162,
      "Man": 2163,
      "ored": 2164,
      "atter": 2165,
      "25": 2166,
      "tit": 2167,
      "east": 2168,
      "person": 2169,
      "since": 2170,
      "town": 2171,
      "single": 2172,
      "lish": 2173,
      "ional": 2174,
      "Apr": 2175,
      "sequ": 2176,
      "March": 2177,
      "April": 2178,
      "reach": 2179,
      "gun": 2180,
      "Fe": 2181,
      "app": 2182,
      "aged": 2183,
      "even": 2184,
      "Ac": 2185,
      "arm": 2186,
      "care": 2187,
      "ude": 2188,
      "ural": 2189,
      "name": 2190,
      "pri": 2191,
      "won": 2192,
      "ster": 2193,
      "Eu": 2194,
      "Ge": 2195,
      "differ": 2196,
      "power": 2197,
      "Mc": 2198,
      "Co": 2199,
      "dom": 2200,
      "hal": 2201,
      "vious": 2202,
      "0s": 2203,
      "ient": 2204,
      "Coun": 2205,
      "lit": 2206,
      "bro": 2207,
      "idge": 2208,
      "ague": 2209,
      "Indi": 2210,
      "final": 2211,
      "ined": 2212,
      "test": 2213,
      "left": 2214,
      "ref": 2215,
      "due": 2216,
      "South": 2217,
      "south": 2218,
      "event": 2219,
      "During": 2220,
      "version": 2221,
      "gre": 2222,
      "udi": 2223,
      "school": 2224,
      "ages": 2225,
      "list": 2226,
      "Dece": 2227,
      "ica": 2228,
      "ank": 2229,
      "December": 2230,
      "third": 2231,
      "German": 2232,
      "avy": 2233,
      "incre": 2234,
      "ilt": 2235,
      "water": 2236,
      "Me": 2237,
      "aff": 2238,
      "month": 2239,
      "Ph": 2240,
      "Ed": 2241,
      "moved": 2242,
      "ision": 2243,
      "Ste": 2244,
      "much": 2245,
      "ier": 2246,
      "child": 2247,
      "another": 2248,
      "expl": 2249,
      "ets": 2250,
      "named": 2251,
      "January": 2252,
      "included": 2253,
      "195": 2254,
      "based": 2255,
      "We": 2256,
      "issu": 2257,
      "wrote": 2258,
      "claim": 2259,
      "camp": 2260,
      "government": 2261,
      "193": 2262,
      "ships": 2263,
      "All": 2264,
      "kill": 2265,
      "ales": 2266,
      "ians": 2267,
      "When": 2268,
      "ons": 2269,
      "apan": 2270,
      "home": 2271,
      "ls": 2272,
      "chan": 2273,
      "short": 2274,
      "story": 2275,
      "Or": 2276,
      "Pe": 2277,
      "death": 2278,
      "ane": 2279,
      "bert": 2280,
      "ute": 2281,
      "order": 2282,
      "24": 2283,
      "ought": 2284,
      "ature": 2285,
      "Japan": 2286,
      "ently": 2287,
      "Gu": 2288,
      "roy": 2289,
      "ner": 2290,
      "ext": 2291,
      "ically": 2292,
      "ody": 2293,
      "make": 2294,
      "press": 2295,
      "using": 2296,
      "tempt": 2297,
      "family": 2298,
      "review": 2299,
      "Pro": 2300,
      "ital": 2301,
      "species": 2302,
      "pect": 2303,
      "ution": 2304,
      "oss": 2305,
      "flu": 2306,
      "hand": 2307,
      "house": 2308,
      "described": 2309,
      "ement": 2310,
      "previous": 2311,
      "ik": 2312,
      "fact": 2313,
      "rench": 2314,
      "...": 2315,
      "ney": 2316,
      "dam": 2317,
      "dest": 2318,
      "rown": 2319,
      "ards": 2320,
      "forman": 2321,
      "late": 2322,
      "Euro": 2323,
      "beli": 2324,
      "thing": 2325,
      "cas": 2326,
      "real": 2327,
      "urther": 2328,
      "built": 2329,
      "gener": 2330,
      "ilar": 2331,
      "former": 2332,
      "ified": 2333,
      "Bo": 2334,
      "best": 2335,
      "ene": 2336,
      "attempt": 2337,
      "oute": 2338,
      "placed": 2339,
      "tak": 2340,
      "games": 2341,
      "ler": 2342,
      "mp": 2343,
      "tract": 2344,
      "polit": 2345,
      "ness": 2346,
      "held": 2347,
      "command": 2348,
      "stud": 2349,
      "colle": 2350,
      "still": 2351,
      "put": 2352,
      "ety": 2353,
      "original": 2354,
      "stit": 2355,
      "His": 2356,
      "those": 2357,
      "ared": 2358,
      "addition": 2359,
      "constru": 2360,
      "Mon": 2361,
      "gram": 2362,
      "bruary": 2363,
      "February": 2364,
      "ford": 2365,
      "lim": 2366,
      "augh": 2367,
      "next": 2368,
      "vo": 2369,
      "effect": 2370,
      "anc": 2371,
      "Christ": 2372,
      "There": 2373,
      "fall": 2374,
      "performan": 2375,
      "fel": 2376,
      "mid": 2377,
      "fri": 2378,
      "gy": 2379,
      "den": 2380,
      "Par": 2381,
      "members": 2382,
      "rican": 2383,
      "sent": 2384,
      "21": 2385,
      "ctions": 2386,
      "ences": 2387,
      "ator": 2388,
      "National": 2389,
      "mar": 2390,
      "100": 2391,
      "Europe": 2392,
      "Gen": 2393,
      "iversity": 2394,
      "days": 2395,
      "see": 2396,
      "period": 2397,
      "adv": 2398,
      "within": 2399,
      "mit": 2400,
      "ats": 2401,
      "Li": 2402,
      "French": 2403,
      "ham": 2404,
      "22": 2405,
      "release": 2406,
      "role": 2407,
      "although": 2408,
      "move": 2409,
      "init": 2410,
      "thor": 2411,
      "video": 2412,
      "wind": 2413,
      "ush": 2414,
      "say": 2415,
      "half": 2416,
      "2010": 2417,
      "hip": 2418,
      "ines": 2419,
      "bur": 2420,
      "estab": 2421,
      "came": 2422,
      "ze": 2423,
      "cor": 2424,
      "William": 2425,
      "ropical": 2426,
      "continued": 2427,
      "Ser": 2428,
      "wom": 2429,
      "round": 2430,
      "23": 2431,
      "Her": 2432,
      "law": 2433,
      "ps": 2434,
      "win": 2435,
      "And": 2436,
      "aining": 2437,
      "craft": 2438,
      "na": 2439,
      "uc": 2440,
      "ains": 2441,
      "ribut": 2442,
      "ning": 2443,
      "ulation": 2444,
      "hum": 2445,
      "posed": 2446,
      "sou": 2447,
      "uss": 2448,
      "however": 2449,
      "ris": 2450,
      "ending": 2451,
      "ones": 2452,
      "27": 2453,
      "itary": 2454,
      "ched": 2455,
      "2008": 2456,
      "inning": 2457,
      "fac": 2458,
      "often": 2459,
      "2009": 2460,
      "you": 2461,
      "Geor": 2462,
      "few": 2463,
      "ral": 2464,
      "imes": 2465,
      "equ": 2466,
      "ister": 2467,
      "ampion": 2468,
      "ali": 2469,
      "take": 2470,
      "rad": 2471,
      "stri": 2472,
      "mag": 2473,
      "friend": 2474,
      "28": 2475,
      "local": 2476,
      "player": 2477,
      "similar": 2478,
      "2011": 2479,
      "sen": 2480,
      "Fran": 2481,
      "among": 2482,
      "Ear": 2483,
      "Air": 2484,
      "production": 2485,
      "beg": 2486,
      "Mich": 2487,
      "pite": 2488,
      "force": 2489,
      "Des": 2490,
      "went": 2491,
      "different": 2492,
      "wood": 2493,
      "ior": 2494,
      "ix": 2495,
      "Inter": 2496,
      "Bar": 2497,
      "chang": 2498,
      "possi": 2499,
      "mission": 2500,
      "ony": 2501,
      "England": 2502,
      "26": 2503,
      "ove": 2504,
      "Char": 2505,
      "atic": 2506,
      "storm": 2507,
      "40": 2508,
      "ery": 2509,
      "further": 2510,
      "strong": 2511,
      "One": 2512,
      "week": 2513,
      "night": 2514,
      "considered": 2515,
      "company": 2516,
      "level": 2517,
      "Mus": 2518,
      "sty": 2519,
      "served": 2520,
      "Dav": 2521,
      "ides": 2522,
      "2007": 2523,
      "post": 2524,
      "ided": 2525,
      "ices": 2526,
      "career": 2527,
      "aver": 2528,
      "Har": 2529,
      "fire": 2530,
      "provid": 2531,
      "having": 2532,
      "City": 2533,
      "ively": 2534,
      "East": 2535,
      "ged": 2536,
      "fort": 2537,
      "Park": 2538,
      "action": 2539,
      "exp": 2540,
      "commun": 2541,
      "trad": 2542,
      "English": 2543,
      "tele": 2544,
      "uck": 2545,
      "bas": 2546,
      "fron": 2547,
      "every": 2548,
      "enter": 2549,
      "club": 2550,
      "without": 2551,
      "history": 2552,
      "Although": 2553,
      "refer": 2554,
      "hold": 2555,
      "ives": 2556,
      "studi": 2557,
      "written": 2558,
      "wide": 2559,
      "2012": 2560,
      "become": 2561,
      "Scot": 2562,
      "lands": 2563,
      "stead": 2564,
      "ops": 2565,
      "board": 2566,
      "Fr": 2567,
      "respon": 2568,
      "Lond": 2569,
      "influ": 2570,
      "ink": 2571,
      "reet": 2572,
      "London": 2573,
      "graph": 2574,
      "sound": 2575,
      "Ang": 2576,
      "foot": 2577,
      "ggest": 2578,
      "With": 2579,
      "invol": 2580,
      "River": 2581,
      "suggest": 2582,
      "Batt": 2583,
      "ung": 2584,
      "29": 2585,
      "190": 2586,
      "So": 2587,
      "given": 2588,
      "announ": 2589,
      "ington": 2590,
      "que": 2591,
      "prof": 2592,
      "divid": 2593,
      "tro": 2594,
      "oung": 2595,
      "Ex": 2596,
      "bus": 2597,
      "iss": 2598,
      "mand": 2599,
      "want": 2600,
      "key": 2601,
      "reen": 2602,
      "Mo": 2603,
      "change": 2604,
      "building": 2605,
      "comb": 2606,
      "Canad": 2607,
      "High": 2608,
      "imp": 2609,
      "father": 2610,
      "gave": 2611,
      "successful": 2612,
      "Te": 2613,
      "anim": 2614,
      "common": 2615,
      "published": 2616,
      "Ne": 2617,
      "University": 2618,
      "To": 2619,
      "close": 2620,
      "import": 2621,
      "stated": 2622,
      "seven": 2623,
      "cop": 2624,
      "Sy": 2625,
      "rent": 2626,
      "sure": 2627,
      "never": 2628,
      "While": 2629,
      "good": 2630,
      "dri": 2631,
      "ailed": 2632,
      "returned": 2633,
      "ai": 2634,
      "bor": 2635,
      "produced": 2636,
      "total": 2637,
      "ug": 2638,
      "Pol": 2639,
      "beh": 2640,
      "iment": 2641,
      "ae": 2642,
      "country": 2643,
      "face": 2644,
      "sw": 2645,
      "omin": 2646,
      "prote": 2647,
      "Fl": 2648,
      "eved": 2649,
      "hour": 2650,
      "fr": 2651,
      "find": 2652,
      "away": 2653,
      "popular": 2654,
      "quad": 2655,
      "del": 2656,
      "sit": 2657,
      "tour": 2658,
      "reported": 2659,
      "aren": 2660,
      "Div": 2661,
      "omet": 2662,
      "ably": 2663,
      "2006": 2664,
      "lost": 2665,
      "program": 2666,
      "compos": 2667,
      "great": 2668,
      "aign": 2669,
      "particular": 2670,
      "ways": 2671,
      "draw": 2672,
      "vest": 2673,
      "making": 2674,
      "Cor": 2675,
      "include": 2676,
      "author": 2677,
      "According": 2678,
      "decl": 2679,
      "interest": 2680,
      "recorded": 2681,
      "chn": 2682,
      "how": 2683,
      "struct": 2684,
      "indu": 2685,
      "vers": 2686,
      "Dr": 2687,
      "forces": 2688,
      "arried": 2689,
      "need": 2690,
      "vict": 2691,
      "direct": 2692,
      "fle": 2693,
      "urrican": 2694,
      "plan": 2695,
      "ology": 2696,
      "body": 2697,
      "itions": 2698,
      "bar": 2699,
      "site": 2700,
      "aur": 2701,
      "should": 2702,
      "ama": 2703,
      "ploy": 2704,
      "service": 2705,
      "quar": 2706,
      "performance": 2707,
      "suff": 2708,
      "died": 2709,
      "moder": 2710,
      "Phil": 2711,
      "teen": 2712,
      "ument": 2713,
      "times": 2714,
      "These": 2715,
      "soci": 2716,
      "capt": 2717,
      "ox": 2718,
      "coming": 2719,
      "grad": 2720,
      "aircraft": 2721,
      "Roy": 2722,
      "himself": 2723,
      "2013": 2724,
      "pen": 2725,
      "military": 2726,
      "rock": 2727,
      "intro": 2728,
      "Australia": 2729,
      "depend": 2730,
      "flo": 2731,
      "battle": 2732,
      "ned": 2733,
      "sum": 2734,
      "Jack": 2735,
      "tell": 2736,
      "rew": 2737,
      "agre": 2738,
      "net": 2739,
      "room": 2740,
      "fan": 2741,
      "songs": 2742,
      "fun": 2743,
      "Pres": 2744,
      "member": 2745,
      "pur": 2746,
      "Am": 2747,
      "iness": 2748,
      "critic": 2749,
      "development": 2750,
      "ana": 2751,
      "elect": 2752,
      "General": 2753,
      "State": 2754,
      "Rep": 2755,
      "search": 2756,
      "xim": 2757,
      "aul": 2758,
      "front": 2759,
      "represent": 2760,
      "alth": 2761,
      "aster": 2762,
      "Min": 2763,
      "ened": 2764,
      "look": 2765,
      "189": 2766,
      "BC": 2767,
      "itive": 2768,
      "itch": 2769,
      "ael": 2770,
      "James": 2771,
      "histor": 2772,
      "developed": 2773,
      "akes": 2774,
      "acy": 2775,
      "ges": 2776,
      "istr": 2777,
      "medi": 2778,
      "control": 2779,
      "introdu": 2780,
      "destroy": 2781,
      "children": 2782,
      "gl": 2783,
      "Sw": 2784,
      "sl": 2785,
      "remained": 2786,
      "nal": 2787,
      "chart": 2788,
      "star": 2789,
      "Rom": 2790,
      "characters": 2791,
      "Army": 2792,
      "range": 2793,
      "fav": 2794,
      "ption": 2795,
      "vir": 2796,
      "title": 2797,
      "months": 2798,
      "60": 2799,
      "clear": 2800,
      "Sm": 2801,
      "ither": 2802,
      "mm": 2803,
      "campaign": 2804,
      "occur": 2805,
      "ues": 2806,
      "urricane": 2807,
      "League": 2808,
      "ey": 2809,
      "ising": 2810,
      "cult": 2811,
      "taken": 2812,
      "ense": 2813,
      "gether": 2814,
      "eight": 2815,
      "rap": 2816,
      "van": 2817,
      "ream": 2818,
      "compet": 2819,
      "felt": 2820,
      "ban": 2821,
      "cir": 2822,
      "tropical": 2823,
      "ability": 2824,
      "across": 2825,
      "signific": 2826,
      "writing": 2827,
      "seen": 2828,
      "project": 2829,
      "disc": 2830,
      "omb": 2831,
      "ering": 2832,
      "Su": 2833,
      "ots": 2834,
      "station": 2835,
      "bridge": 2836,
      "gest": 2837,
      "too": 2838,
      "Cap": 2839,
      "appeared": 2840,
      "announced": 2841,
      "America": 2842,
      "pra": 2843,
      "noted": 2844,
      "pec": 2845,
      "tar": 2846,
      "Division": 2847,
      "George": 2848,
      "alter": 2849,
      "reached": 2850,
      "Tw": 2851,
      "appoint": 2852,
      "experi": 2853,
      "cil": 2854,
      "created": 2855,
      "County": 2856,
      "activ": 2857,
      "areas": 2858,
      "Hen": 2859,
      "television": 2860,
      "works": 2861,
      "uses": 2862,
      "Japanese": 2863,
      "2005": 2864,
      "fight": 2865,
      "gin": 2866,
      "Road": 2867,
      "ille": 2868,
      "saw": 2869,
      "performed": 2870,
      "prim": 2871,
      "cost": 2872,
      "various": 2873,
      "political": 2874,
      "lect": 2875,
      "complete": 2876,
      "followed": 2877,
      "Street": 2878,
      "break": 2879,
      "full": 2880,
      "inv": 2881,
      "hor": 2882,
      "iting": 2883,
      "Per": 2884,
      "players": 2885,
      "race": 2886,
      "trave": 2887,
      "style": 2888,
      "ality": 2889,
      "2014": 2890,
      "covered": 2891,
      "arded": 2892,
      "ago": 2893,
      "Ma": 2894,
      "process": 2895,
      "black": 2896,
      "abor": 2897,
      "mph": 2898,
      "mix": 2899,
      "mot": 2900,
      "mb": 2901,
      "antic": 2902,
      "killed": 2903,
      "points": 2904,
      "help": 2905,
      "ief": 2906,
      "wall": 2907,
      "Mad": 2908,
      "ances": 2909,
      "ible": 2910,
      "lished": 2911,
      "throughout": 2912,
      "hit": 2913,
      "live": 2914,
      "sess": 2915,
      "lines": 2916,
      "together": 2917,
      "debut": 2918,
      "bet": 2919,
      "formation": 2920,
      "techn": 2921,
      "little": 2922,
      "sex": 2923,
      "har": 2924,
      "stat": 2925,
      "established": 2926,
      "significant": 2927,
      "fem": 2928,
      "non": 2929,
      "meet": 2930,
      "broad": 2931,
      "ization": 2932,
      "coast": 2933,
      "Thom": 2934,
      "thought": 2935,
      "construction": 2936,
      "icult": 2937,
      "bel": 2938,
      "oto": 2939,
      "miles": 2940,
      "pair": 2941,
      "earli": 2942,
      "does": 2943,
      "Reg": 2944,
      "impro": 2945,
      "enced": 2946,
      "David": 2947,
      "aval": 2948,
      "Michael": 2949,
      "tra": 2950,
      "entire": 2951,
      "Australian": 2952,
      "born": 2953,
      "rain": 2954,
      "stage": 2955,
      "pain": 2956,
      "acc": 2957,
      "far": 2958,
      "ission": 2959,
      "young": 2960,
      "voc": 2961,
      "got": 2962,
      "odes": 2963,
      "relation": 2964,
      "Part": 2965,
      "special": 2966,
      "Rich": 2967,
      "El": 2968,
      "route": 2969,
      "conom": 2970,
      "women": 2971,
      "decided": 2972,
      "ators": 2973,
      "conne": 2974,
      "Bill": 2975,
      "You": 2976,
      "caused": 2977,
      "started": 2978,
      "case": 2979,
      "ivil": 2980,
      "playing": 2981,
      "general": 2982,
      "features": 2983,
      "Med": 2984,
      "San": 2985,
      "grow": 2986,
      "white": 2987,
      "eventually": 2988,
      "scri": 2989,
      "sell": 2990,
      "ho": 2991,
      "once": 2992,
      "House": 2993,
      "ample": 2994,
      "manag": 2995,
      "aves": 2996,
      "tee": 2997,
      "isted": 2998,
      "crew": 2999,
      "ull": 3000,
      "sold": 3001,
      "host": 3002,
      "Fin": 3003,
      "feet": 3004,
      "Royal": 3005,
      "Qu": 3006,
      "opened": 3007,
      "added": 3008,
      "ald": 3009,
      "stant": 3010,
      "modern": 3011,
      "located": 3012,
      "termin": 3013,
      "idence": 3014,
      "188": 3015,
      "Hist": 3016,
      "pat": 3017,
      "quadron": 3018,
      "base": 3019,
      "ampionship": 3020,
      "ife": 3021,
      "reek": 3022,
      "Some": 3023,
      "instead": 3024,
      "ring": 3025,
      "Ital": 3026,
      "itar": 3027,
      "ensive": 3028,
      "vari": 3029,
      "inj": 3030,
      "important": 3031,
      "peak": 3032,
      "clos": 3033,
      "theast": 3034,
      "section": 3035,
      "Music": 3036,
      "cret": 3037,
      "utes": 3038,
      "Black": 3039,
      "word": 3040,
      "Don": 3041,
      "completed": 3042,
      "possible": 3043,
      "hon": 3044,
      "ocial": 3045,
      "Comp": 3046,
      "moun": 3047,
      "ends": 3048,
      "worked": 3049,
      "ov": 3050,
      "cross": 3051,
      "ination": 3052,
      "cause": 3053,
      "My": 3054,
      "current": 3055,
      "others": 3056,
      "population": 3057,
      "oney": 3058,
      "free": 3059,
      "2004": 3060,
      "mater": 3061,
      "audi": 3062,
      "ying": 3063,
      "pred": 3064,
      "Mal": 3065,
      "Bel": 3066,
      "fig": 3067,
      "lled": 3068,
      "leading": 3069,
      "uel": 3070,
      "Sch": 3071,
      "pie": 3072,
      "oted": 3073,
      "rather": 3074,
      "typ": 3075,
      "Po": 3076,
      "don": 3077,
      "quest": 3078,
      "Lu": 3079,
      "loss": 3080,
      "guns": 3081,
      "behind": 3082,
      "church": 3083,
      "tre": 3084,
      "Ber": 3085,
      "Robert": 3086,
      "upon": 3087,
      "ceed": 3088,
      "pract": 3089,
      "forced": 3090,
      "Hol": 3091,
      "31": 3092,
      "dle": 3093,
      "comment": 3094,
      "lack": 3095,
      "era": 3096,
      "mother": 3097,
      "invest": 3098,
      "France": 3099,
      "ask": 3100,
      "fif": 3101,
      "2015": 3102,
      "inch": 3103,
      "heavy": 3104,
      "Cent": 3105,
      "lie": 3106,
      "vill": 3107,
      "ecut": 3108,
      "party": 3109,
      "ays": 3110,
      "respect": 3111,
      "Act": 3112,
      "School": 3113,
      "subsequ": 3114,
      "novel": 3115,
      "ming": 3116,
      "proble": 3117,
      "know": 3118,
      "Russ": 3119,
      "difficult": 3120,
      "accept": 3121,
      "reve": 3122,
      "Wash": 3123,
      "Ab": 3124,
      "Angel": 3125,
      "working": 3126,
      "separ": 3127,
      "human": 3128,
      "Vi": 3129,
      "associ": 3130,
      "joined": 3131,
      "weeks": 3132,
      "term": 3133,
      "Henry": 3134,
      "yn": 3135,
      "scene": 3136,
      "70": 3137,
      "ata": 3138,
      "originally": 3139,
      "avail": 3140,
      "hard": 3141,
      "coll": 3142,
      "ogn": 3143,
      "scored": 3144,
      "almost": 3145,
      "ories": 3146,
      "pression": 3147,
      "asing": 3148,
      "NA": 3149,
      "damage": 3150,
      "allowed": 3151,
      "Ham": 3152,
      "ties": 3153,
      "Battle": 3154,
      "angu": 3155,
      "inst": 3156,
      "mass": 3157,
      "Ale": 3158,
      "fourth": 3159,
      "spir": 3160,
      "Em": 3161,
      "Best": 3162,
      "approach": 3163,
      "ready": 3164,
      "igned": 3165,
      "provided": 3166,
      "engine": 3167,
      "goal": 3168,
      "Cr": 3169,
      "ival": 3170,
      "ope": 3171,
      "ials": 3172,
      "35": 3173,
      "claimed": 3174,
      "ament": 3175,
      "80": 3176,
      "ino": 3177,
      "drop": 3178,
      "Fir": 3179,
      "wanted": 3180,
      "lower": 3181,
      "regular": 3182,
      "Vir": 3183,
      "employ": 3184,
      "Paul": 3185,
      "cup": 3186,
      "Port": 3187,
      "amb": 3188,
      "brought": 3189,
      "Red": 3190,
      "tradition": 3191,
      "nat": 3192,
      "individ": 3193,
      "Que": 3194,
      "featured": 3195,
      "500": 3196,
      "President": 3197,
      "Cour": 3198,
      "least": 3199,
      "cell": 3200,
      "wife": 3201,
      "laun": 3202,
      "gar": 3203,
      "econom": 3204,
      "hest": 3205,
      "average": 3206,
      "Mil": 3207,
      "passed": 3208,
      "soon": 3209,
      "aut": 3210,
      "business": 3211,
      "towards": 3212,
      "super": 3213,
      "TV": 3214,
      "region": 3215,
      "runs": 3216,
      "cred": 3217,
      "Washington": 3218,
      "recogn": 3219,
      "aps": 3220,
      "bal": 3221,
      "tempor": 3222,
      "critics": 3223,
      "western": 3224,
      "Play": 3225,
      "azine": 3226,
      "quick": 3227,
      "either": 3228,
      "office": 3229,
      "estim": 3230,
      "cts": 3231,
      "sour": 3232,
      "186": 3233,
      "contract": 3234,
      "profess": 3235,
      "redu": 3236,
      "leng": 3237,
      "plann": 3238,
      "Mor": 3239,
      "defe": 3240,
      "court": 3241,
      "forms": 3242,
      "example": 3243,
      "emy": 3244,
      "counter": 3245,
      "merc": 3246,
      "rail": 3247,
      "rid": 3248,
      "nomin": 3249,
      "Other": 3250,
      "Mac": 3251,
      "ula": 3252,
      "troops": 3253,
      "foc": 3254,
      "icated": 3255,
      "compan": 3256,
      "finished": 3257,
      "Res": 3258,
      "cing": 3259,
      "nia": 3260,
      "hom": 3261,
      "army": 3262,
      "dou": 3263,
      "ids": 3264,
      "Je": 3265,
      "Despite": 3266,
      "concl": 3267,
      "2003": 3268,
      "Follow": 3269,
      "rul": 3270,
      "feel": 3271,
      "ades": 3272,
      "generally": 3273,
      "shot": 3274,
      "mult": 3275,
      "asy": 3276,
      "Dan": 3277,
      "proper": 3278,
      "Game": 3279,
      "condu": 3280,
      "circ": 3281,
      "bill": 3282,
      "Gl": 3283,
      "ply": 3284,
      "whe": 3285,
      "det": 3286,
      "Colle": 3287,
      "aper": 3288,
      "events": 3289,
      "ico": 3290,
      "length": 3291,
      "believed": 3292,
      "compl": 3293,
      "fed": 3294,
      "mun": 3295,
      "Cup": 3296,
      "cert": 3297,
      "bes": 3298,
      "fre": 3299,
      "particip": 3300,
      "First": 3301,
      "Following": 3302,
      "osp": 3303,
      "keep": 3304,
      "ius": 3305,
      "parts": 3306,
      "sea": 3307,
      "aled": 3308,
      "mal": 3309,
      "Hill": 3310,
      "Mary": 3311,
      "fund": 3312,
      "anti": 3313,
      "Star": 3314,
      "scen": 3315,
      "nine": 3316,
      "victory": 3317,
      "replaced": 3318,
      "ention": 3319,
      "bound": 3320,
      "nel": 3321,
      "designed": 3322,
      "available": 3323,
      "island": 3324,
      "iction": 3325,
      "official": 3326,
      "Dep": 3327,
      "conc": 3328,
      "hours": 3329,
      "European": 3330,
      "involved": 3331,
      "sele": 3332,
      "ping": 3333,
      "president": 3334,
      "Two": 3335,
      "opening": 3336,
      "evol": 3337,
      "prison": 3338,
      "Lou": 3339,
      "itor": 3340,
      "ological": 3341,
      "stop": 3342,
      "asked": 3343,
      "ential": 3344,
      "certain": 3345,
      "turned": 3346,
      "tic": 3347,
      "comes": 3348,
      "execut": 3349,
      "exist": 3350,
      "tor": 3351,
      "director": 3352,
      "hous": 3353,
      "hab": 3354,
      "erous": 3355,
      "saying": 3356,
      "bri": 3357,
      "alk": 3358,
      "Sun": 3359,
      "threat": 3360,
      "ience": 3361,
      "ount": 3362,
      "appearance": 3363,
      "ports": 3364,
      "commit": 3365,
      "2000": 3366,
      "45": 3367,
      "75": 3368,
      "istic": 3369,
      "love": 3370,
      "ighest": 3371,
      "cycl": 3372,
      "stone": 3373,
      "park": 3374,
      "minutes": 3375,
      "largest": 3376,
      "writer": 3377,
      "Roman": 3378,
      "Mer": 3379,
      "watch": 3380,
      "highway": 3381,
      "southern": 3382,
      "Route": 3383,
      "tel": 3384,
      "Scott": 3385,
      "taking": 3386,
      "survi": 3387,
      "going": 3388,
      "ublic": 3389,
      "highest": 3390,
      "earlier": 3391,
      "From": 3392,
      "2001": 3393,
      "Mid": 3394,
      "initially": 3395,
      "ishing": 3396,
      "percent": 3397,
      "particularly": 3398,
      "training": 3399,
      "sil": 3400,
      "Atl": 3401,
      "vice": 3402,
      "mir": 3403,
      "lear": 3404,
      "nd": 3405,
      "cal": 3406,
      "ership": 3407,
      "Sing": 3408,
      "White": 3409,
      "lying": 3410,
      "educ": 3411,
      "must": 3412,
      "Church": 3413,
      "ordered": 3414,
      "assist": 3415,
      "issue": 3416,
      "Charles": 3417,
      "Kingdom": 3418,
      "Navy": 3419,
      "ize": 3420,
      "Mart": 3421,
      "Val": 3422,
      "ha": 3423,
      "graphy": 3424,
      "signed": 3425,
      "bit": 3426,
      "Do": 3427,
      "hib": 3428,
      "pot": 3429,
      "weak": 3430,
      "ateg": 3431,
      "box": 3432,
      "Thomas": 3433,
      "pond": 3434,
      "social": 3435,
      "tries": 3436,
      "central": 3437,
      "thus": 3438,
      "Off": 3439,
      "uture": 3440,
      "studio": 3441,
      "maintain": 3442,
      "praised": 3443,
      "pected": 3444,
      "Hall": 3445,
      "International": 3446,
      "speed": 3447,
      "alifor": 3448,
      "Mag": 3449,
      "ency": 3450,
      "Smith": 3451,
      "langu": 3452,
      "prec": 3453,
      "date": 3454,
      "ville": 3455,
      "reason": 3456,
      "Virgin": 3457,
      "ception": 3458,
      "pers": 3459,
      "increased": 3460,
      "gress": 3461,
      "hurricane": 3462,
      "bow": 3463,
      "northern": 3464,
      "deal": 3465,
      "Du": 3466,
      "ification": 3467,
      "units": 3468,
      "research": 3469,
      "But": 3470,
      "2002": 3471,
      "relig": 3472,
      "past": 3473,
      "90": 3474,
      "depart": 3475,
      "type": 3476,
      "stry": 3477,
      "meas": 3478,
      "Canada": 3479,
      "ape": 3480,
      "Bur": 3481,
      "Califor": 3482,
      "via": 3483,
      "commission": 3484,
      "Dis": 3485,
      "deli": 3486,
      "Bay": 3487,
      "ta": 3488,
      "pay": 3489,
      "Cam": 3490,
      "rac": 3491,
      "immedi": 3492,
      "mean": 3493,
      "daugh": 3494,
      "ayed": 3495,
      "AA": 3496,
      "Pri": 3497,
      "rian": 3498,
      "relationship": 3499,
      "agon": 3500,
      "fantry": 3501,
      "acqu": 3502,
      "ilities": 3503,
      "za": 3504,
      "Peter": 3505,
      "Richard": 3506,
      "pressed": 3507,
      "omer": 3508,
      "Pal": 3509,
      "independ": 3510,
      "usually": 3511,
      "imin": 3512,
      "bomb": 3513,
      "told": 3514,
      "better": 3515,
      "California": 3516,
      "Indian": 3517,
      "Alex": 3518,
      "Bro": 3519,
      "icket": 3520,
      "states": 3521,
      "enough": 3522,
      "winds": 3523,
      "Union": 3524,
      "Sen": 3525,
      "Mill": 3526,
      "hol": 3527,
      "Sam": 3528,
      "uk": 3529,
      "positive": 3530,
      "sal": 3531,
      "commerc": 3532,
      "ken": 3533,
      "Ho": 3534,
      "jour": 3535,
      "Court": 3536,
      "Island": 3537,
      "concern": 3538,
      "sed": 3539,
      "Brown": 3540,
      "sat": 3541,
      "spent": 3542,
      "aring": 3543,
      "according": 3544,
      "Mi": 3545,
      "ference": 3546,
      "Ben": 3547,
      "phys": 3548,
      "rup": 3549,
      "appointed": 3550,
      "above": 3551,
      "screen": 3552,
      "God": 3553,
      "films": 3554,
      "arily": 3555,
      "outside": 3556,
      "Great": 3557,
      "ume": 3558,
      "accoun": 3559,
      "football": 3560,
      "tion": 3561,
      "Award": 3562,
      "icle": 3563,
      "Cong": 3564,
      "previously": 3565,
      "ara": 3566,
      "recording": 3567,
      "script": 3568,
      "quare": 3569,
      "Sal": 3570,
      "ston": 3571,
      "responsi": 3572,
      "standing": 3573,
      "contribut": 3574,
      "Associ": 3575,
      "active": 3576,
      "Tom": 3577,
      "failed": 3578,
      "defin": 3579,
      "bird": 3580,
      "access": 3581,
      "usion": 3582,
      "Company": 3583,
      "required": 3584,
      "elements": 3585,
      "load": 3586,
      "Rock": 3587,
      "lay": 3588,
      "occup": 3589,
      "reng": 3590,
      "mur": 3591,
      "ener": 3592,
      "treat": 3593,
      "overnor": 3594,
      "ems": 3595,
      "vin": 3596,
      "187": 3597,
      "Germany": 3598,
      "reviews": 3599,
      "India": 3600,
      "directed": 3601,
      "Vict": 3602,
      "viol": 3603,
      "interview": 3604,
      "NY": 3605,
      "ometimes": 3606,
      "alion": 3607,
      "itself": 3608,
      "sey": 3609,
      "give": 3610,
      "groups": 3611,
      "Ap": 3612,
      "Christian": 3613,
      "reme": 3614,
      "Mark": 3615,
      "gir": 3616,
      "La": 3617,
      "despite": 3618,
      "score": 3619,
      "vert": 3620,
      "respond": 3621,
      "atin": 3622,
      "Sou": 3623,
      "inner": 3624,
      "aters": 3625,
      "Times": 3626,
      "cru": 3627,
      "III": 3628,
      "thod": 3629,
      "Str": 3630,
      "prob": 3631,
      "perform": 3632,
      "UK": 3633,
      "ique": 3634,
      "beginning": 3635,
      "introduced": 3636,
      "Ter": 3637,
      "Sk": 3638,
      "ministr": 3639,
      "bour": 3640,
      "soldi": 3641,
      "College": 3642,
      "space": 3643,
      "happ": 3644,
      "onto": 3645,
      "frequ": 3646,
      "ida": 3647,
      "streng": 3648,
      "whose": 3649,
      "flight": 3650,
      "oring": 3651,
      "priv": 3652,
      "tur": 3653,
      "transfer": 3654,
      "Cast": 3655,
      "league": 3656,
      "Western": 3657,
      "ication": 3658,
      "sus": 3659,
      "ept": 3660,
      "prevent": 3661,
      "idea": 3662,
      "Mex": 3663,
      "brother": 3664,
      "Sim": 3665,
      "changes": 3666,
      "edy": 3667,
      "Sovi": 3668,
      "Jer": 3669,
      "election": 3670,
      "additional": 3671,
      "defeated": 3672,
      "gold": 3673,
      "Gold": 3674,
      "future": 3675,
      "ga": 3676,
      "igan": 3677,
      "conf": 3678,
      "ault": 3679,
      "whom": 3680,
      "Ke": 3681,
      "appl": 3682,
      "pil": 3683,
      "poor": 3684,
      "international": 3685,
      "ases": 3686,
      "Grand": 3687,
      "jud": 3688,
      "Awards": 3689,
      "ns": 3690,
      "Span": 3691,
      "anal": 3692,
      "native": 3693,
      "exten": 3694,
      "evidence": 3695,
      "structure": 3696,
      "changed": 3697,
      "quickly": 3698,
      "argu": 3699,
      "tom": 3700,
      "Tri": 3701,
      "center": 3702,
      "already": 3703,
      "specific": 3704,
      "market": 3705,
      "That": 3706,
      "Force": 3707,
      "photo": 3708,
      "radio": 3709,
      "situ": 3710,
      "material": 3711,
      "doc": 3712,
      "Day": 3713,
      "aint": 3714,
      "sem": 3715,
      "river": 3716,
      "Most": 3717,
      "coach": 3718,
      "agreed": 3719,
      "arrived": 3720,
      "atory": 3721,
      "study": 3722,
      "civil": 3723,
      "Bu": 3724,
      "Britain": 3725,
      "Met": 3726,
      "likely": 3727,
      "ctive": 3728,
      "staff": 3729,
      "dies": 3730,
      "decision": 3731,
      "slow": 3732,
      "umb": 3733,
      "emp": 3734,
      "lyr": 3735,
      "useum": 3736,
      "subject": 3737,
      "female": 3738,
      "lies": 3739,
      "money": 3740,
      "sometimes": 3741,
      "might": 3742,
      "limited": 3743,
      "surface": 3744,
      "response": 3745,
      "anch": 3746,
      "fleet": 3747,
      "espec": 3748,
      "Film": 3749,
      "names": 3750,
      "hop": 3751,
      "icted": 3752,
      "spr": 3753,
      "course": 3754,
      "magazine": 3755,
      "especially": 3756,
      "food": 3757,
      "apt": 3758,
      "ben": 3759,
      "actions": 3760,
      "nation": 3761,
      "ded": 3762,
      "Later": 3763,
      "33": 3764,
      "pet": 3765,
      "estimated": 3766,
      "liament": 3767,
      "broadcast": 3768,
      "carried": 3769,
      "Victor": 3770,
      "Championship": 3771,
      "flow": 3772,
      "Chin": 3773,
      "flood": 3774,
      "consider": 3775,
      "Pac": 3776,
      "shows": 3777,
      "Frank": 3778,
      "community": 3779,
      "sch": 3780,
      "guitar": 3781,
      "paren": 3782,
      "listed": 3783,
      "ples": 3784,
      "uded": 3785,
      "prepar": 3786,
      "musical": 3787,
      "scenes": 3788,
      "size": 3789,
      "rate": 3790,
      "remaining": 3791,
      "related": 3792,
      "1999": 3793,
      "eastern": 3794,
      "arrison": 3795,
      "minor": 3796,
      "bi": 3797,
      "berg": 3798,
      "plant": 3799,
      "text": 3800,
      "venue": 3801,
      "personal": 3802,
      "Over": 3803,
      "becoming": 3804,
      "Virginia": 3805,
      "natural": 3806,
      "Early": 3807,
      "Los": 3808,
      "cul": 3809,
      "larger": 3810,
      "division": 3811,
      "isl": 3812,
      "latter": 3813,
      "entered": 3814,
      "bot": 3815,
      "bell": 3816,
      "media": 3817,
      "object": 3818,
      "emer": 3819,
      "rights": 3820,
      "police": 3821,
      "summer": 3822,
      "ises": 3823,
      "Pat": 3824,
      "married": 3825,
      "suggested": 3826,
      "suit": 3827,
      "pressure": 3828,
      "approxim": 3829,
      "yard": 3830,
      "teams": 3831,
      "brief": 3832,
      "arrang": 3833,
      "ror": 3834,
      "liter": 3835,
      "itz": 3836,
      "Year": 3837,
      "daughter": 3838,
      "investig": 3839,
      "Just": 3840,
      "establish": 3841,
      "36": 3842,
      "surround": 3843,
      "Jackson": 3844,
      "students": 3845,
      "exper": 3846,
      "Second": 3847,
      "tax": 3848,
      "Di": 3849,
      "ena": 3850,
      "temporary": 3851,
      "effects": 3852,
      "kil": 3853,
      "Tex": 3854,
      "Chic": 3855,
      "prior": 3856,
      "episodes": 3857,
      "37": 3858,
      "favor": 3859,
      "woman": 3860,
      "If": 3861,
      "tons": 3862,
      "els": 3863,
      "alled": 3864,
      "Flor": 3865,
      "Louis": 3866,
      "worth": 3867,
      "winning": 3868,
      "fit": 3869,
      "Oly": 3870,
      "Tour": 3871,
      "iter": 3872,
      "clim": 3873,
      "Fle": 3874,
      "leaving": 3875,
      "destroyed": 3876,
      "irth": 3877,
      "mor": 3878,
      "sett": 3879,
      "mode": 3880,
      "Olymp": 3881,
      "avo": 3882,
      "selves": 3883,
      "tracks": 3884,
      "Green": 3885,
      "viron": 3886,
      "Lord": 3887,
      "join": 3888,
      "bs": 3889,
      "equip": 3890,
      "fail": 3891,
      "Spanish": 3892,
      "Club": 3893,
      "Ty": 3894,
      "pan": 3895,
      "sons": 3896,
      "provide": 3897,
      "reli": 3898,
      "relative": 3899,
      "igade": 3900,
      "territ": 3901,
      "idents": 3902,
      "polic": 3903,
      "mocr": 3904,
      "burg": 3905,
      "Aust": 3906,
      "aj": 3907,
      "vie": 3908,
      "proposed": 3909,
      "Pre": 3910,
      "influence": 3911,
      "intended": 3912,
      "Party": 3913,
      "overall": 3914,
      "aries": 3915,
      "Soviet": 3916,
      "verse": 3917,
      "32": 3918,
      "spo": 3919,
      "qual": 3920,
      "moving": 3921,
      "ening": 3922,
      "big": 3923,
      "running": 3924,
      "occas": 3925,
      "38": 3926,
      "supported": 3927,
      "artment": 3928,
      "distr": 3929,
      "Association": 3930,
      "escap": 3931,
      "fully": 3932,
      "ander": 3933,
      "quarter": 3934,
      "ek": 3935,
      "thers": 3936,
      "purch": 3937,
      "expected": 3938,
      "burn": 3939,
      "Rob": 3940,
      "Chicago": 3941,
      "Cal": 3942,
      "fell": 3943,
      "lot": 3944,
      "nearly": 3945,
      "49": 3946,
      "Many": 3947,
      "abs": 3948,
      "forward": 3949,
      "helped": 3950,
      "Love": 3951,
      "mach": 3952,
      "movement": 3953,
      "Record": 3954,
      "awarded": 3955,
      "1998": 3956,
      "Chinese": 3957,
      "mixed": 3958,
      "commercial": 3959,
      "ires": 3960,
      "Council": 3961,
      "bring": 3962,
      "Che": 3963,
      "rey": 3964,
      "secut": 3965,
      "marked": 3966,
      "issued": 3967,
      "closed": 3968,
      "Song": 3969,
      "experience": 3970,
      "create": 3971,
      "Super": 3972,
      "consist": 3973,
      "nu": 3974,
      "Oper": 3975,
      "stars": 3976,
      "Edward": 3977,
      "185": 3978,
      "Im": 3979,
      "stra": 3980,
      "dark": 3981,
      "planned": 3982,
      "bey": 3983,
      "syn": 3984,
      "Enter": 3985,
      "breed": 3986,
      "done": 3987,
      "legal": 3988,
      "Del": 3989,
      "dead": 3990,
      "longer": 3991,
      "iple": 3992,
      "fans": 3993,
      "ny": 3994,
      "joy": 3995,
      "language": 3996,
      "pow": 3997,
      "operation": 3998,
      "higher": 3999,
      "possib": 4000,
      "hood": 4001,
      "attract": 4002,
      "captured": 4003,
      "compared": 4004,
      "increasing": 4005,
      "300": 4006,
      "phen": 4007,
      "leader": 4008,
      "wing": 4009,
      "fill": 4010,
      "ili": 4011,
      "ari": 4012,
      "Johnson": 4013,
      "deep": 4014,
      "cele": 4015,
      "Ze": 4016,
      "approximately": 4017,
      "Lo": 4018,
      "living": 4019,
      "fish": 4020,
      "feature": 4021,
      "fifth": 4022,
      "bon": 4023,
      "temper": 4024,
      "themselves": 4025,
      "ato": 4026,
      "touch": 4027,
      "producer": 4028,
      "History": 4029,
      "dy": 4030,
      "print": 4031,
      "Kore": 4032,
      "chall": 4033,
      "mostly": 4034,
      "ech": 4035,
      "bad": 4036,
      "dig": 4037,
      "Pacific": 4038,
      "1st": 4039,
      "intens": 4040,
      "Back": 4041,
      "icles": 4042,
      "Billboard": 4043,
      "lor": 4044,
      "anced": 4045,
      "rica": 4046,
      "Go": 4047,
      "operations": 4048,
      "remains": 4049,
      "olk": 4050,
      "rd": 4051,
      "defeat": 4052,
      "appears": 4053,
      "mitted": 4054,
      "weap": 4055,
      "buildings": 4056,
      "whether": 4057,
      "34": 4058,
      "orial": 4059,
      "Ir": 4060,
      "bury": 4061,
      "aught": 4062,
      "Art": 4063,
      "los": 4064,
      "extended": 4065,
      "probably": 4066,
      "soldiers": 4067,
      "copies": 4068,
      "spired": 4069,
      "lan": 4070,
      "Hu": 4071,
      "plot": 4072,
      "ba": 4073,
      "Under": 4074,
      "Cro": 4075,
      "Squadron": 4076,
      "weight": 4077,
      "Queen": 4078,
      "voice": 4079,
      "heav": 4080,
      "Since": 4081,
      "pose": 4082,
      "1997": 4083,
      "lyrics": 4084,
      "Atlantic": 4085,
      "portr": 4086,
      "complex": 4087,
      "stream": 4088,
      "shoot": 4089,
      "jected": 4090,
      "battles": 4091,
      "transport": 4092,
      "deb": 4093,
      "really": 4094,
      "countries": 4095,
      "mas": 4096,
      "ender": 4097,
      "affe": 4098,
      "suffered": 4099,
      "Bal": 4100,
      "Mur": 4101,
      "ospital": 4102,
      "cm": 4103,
      "Test": 4104,
      "roll": 4105,
      "goals": 4106,
      "Lake": 4107,
      "Arch": 4108,
      "includes": 4109,
      "demand": 4110,
      "Florida": 4111,
      "carri": 4112,
      "andon": 4113,
      "igr": 4114,
      "issues": 4115,
      "Sever": 4116,
      "immediately": 4117,
      "health": 4118,
      "Law": 4119,
      "cting": 4120,
      "MS": 4121,
      "Both": 4122,
      "Tur": 4123,
      "Leg": 4124,
      "capital": 4125,
      "manager": 4126,
      "private": 4127,
      "request": 4128,
      "visit": 4129,
      "boy": 4130,
      "officers": 4131,
      "Sea": 4132,
      "Big": 4133,
      "48": 4134,
      "Jim": 4135,
      "Jew": 4136,
      "leave": 4137,
      "target": 4138,
      "cis": 4139,
      "ores": 4140,
      "location": 4141,
      "aging": 4142,
      "ams": 4143,
      "removed": 4144,
      "expand": 4145,
      "Station": 4146,
      "ultim": 4147,
      "Texas": 4148,
      "flict": 4149,
      "flag": 4150,
      "increase": 4151,
      "Tor": 4152,
      "FA": 4153,
      "yards": 4154,
      "Fort": 4155,
      "rich": 4156,
      "birth": 4157,
      "subsequently": 4158,
      "cit": 4159,
      "Bet": 4160,
      "status": 4161,
      "plans": 4162,
      "wa": 4163,
      "colon": 4164,
      "always": 4165,
      "offered": 4166,
      "fast": 4167,
      "portion": 4168,
      "amed": 4169,
      "confir": 4170,
      "services": 4171,
      "Ot": 4172,
      "mel": 4173,
      "upper": 4174,
      "China": 4175,
      "Old": 4176,
      "Mr": 4177,
      "ert": 4178,
      "Town": 4179,
      "Studi": 4180,
      "Another": 4181,
      "nes": 4182,
      "problems": 4183,
      "evolution": 4184,
      "attacks": 4185,
      "ging": 4186,
      "block": 4187,
      "gas": 4188,
      "instr": 4189,
      "twent": 4190,
      "Rad": 4191,
      "tainment": 4192,
      "How": 4193,
      "vey": 4194,
      "phy": 4195,
      "reser": 4196,
      "terms": 4197,
      "shire": 4198,
      "Earth": 4199,
      "demon": 4200,
      "oud": 4201,
      "forts": 4202,
      "something": 4203,
      "professional": 4204,
      "habit": 4205,
      "39": 4206,
      "aily": 4207,
      "carry": 4208,
      "administr": 4209,
      "village": 4210,
      "takes": 4211,
      "castle": 4212,
      "stitut": 4213,
      "majority": 4214,
      "ously": 4215,
      "orning": 4216,
      "discover": 4217,
      "discovered": 4218,
      "rat": 4219,
      "Rail": 4220,
      "vironment": 4221,
      "makes": 4222,
      "contr": 4223,
      "Canadian": 4224,
      "Boy": 4225,
      "ranked": 4226,
      "iser": 4227,
      "Emp": 4228,
      "composed": 4229,
      "job": 4230,
      "minute": 4231,
      "assigned": 4232,
      "Mat": 4233,
      "neg": 4234,
      "Africa": 4235,
      "elected": 4236,
      "Center": 4237,
      "concept": 4238,
      "anks": 4239,
      "damaged": 4240,
      "47": 4241,
      "Bow": 4242,
      "uries": 4243,
      "adop": 4244,
      "beat": 4245,
      "meeting": 4246,
      "otion": 4247,
      "initial": 4248,
      "cean": 4249,
      "aker": 4250,
      "mouth": 4251,
      "Wood": 4252,
      "Its": 4253,
      "adium": 4254,
      "cu": 4255,
      "iles": 4256,
      "revealed": 4257,
      "chester": 4258,
      "incor": 4259,
      "individual": 4260,
      "Bra": 4261,
      "Highway": 4262,
      "mat": 4263,
      "inspired": 4264,
      "onna": 4265,
      "raised": 4266,
      "Russian": 4267,
      "giving": 4268,
      "ulated": 4269,
      "lived": 4270,
      "itect": 4271,
      "olic": 4272,
      "plays": 4273,
      "financ": 4274,
      "necess": 4275,
      "Carol": 4276,
      "atives": 4277,
      "DV": 4278,
      "Mel": 4279,
      "yet": 4280,
      "respectively": 4281,
      "associated": 4282,
      "mic": 4283,
      "inent": 4284,
      "attacked": 4285,
      "Sir": 4286,
      "bul": 4287,
      "ails": 4288,
      "Hot": 4289,
      "numerous": 4290,
      "Martin": 4291,
      "1995": 4292,
      "Kent": 4293,
      "Central": 4294,
      "needed": 4295,
      "Trans": 4296,
      "actor": 4297,
      "mist": 4298,
      "heart": 4299,
      "Angeles": 4300,
      "grand": 4301,
      "ider": 4302,
      "stitute": 4303,
      "rout": 4304,
      "nature": 4305,
      "veh": 4306,
      "ado": 4307,
      "Francis": 4308,
      "friends": 4309,
      "uter": 4310,
      "impact": 4311,
      "distribut": 4312,
      "scient": 4313,
      "launched": 4314,
      "constructed": 4315,
      "cand": 4316,
      "occurred": 4317,
      "conditions": 4318,
      "stitution": 4319,
      "contains": 4320,
      "information": 4321,
      "shown": 4322,
      "domin": 4323,
      "pool": 4324,
      "sales": 4325,
      "attempted": 4326,
      "Congress": 4327,
      "estival": 4328,
      "books": 4329,
      "uments": 4330,
      "uals": 4331,
      "kind": 4332,
      "exam": 4333,
      "step": 4334,
      "struction": 4335,
      "piece": 4336,
      "2nd": 4337,
      "ications": 4338,
      "singer": 4339,
      "critical": 4340,
      "Prince": 4341,
      "Cle": 4342,
      "Bob": 4343,
      "Hal": 4344,
      "2016": 4345,
      "secur": 4346,
      "whole": 4347,
      "premi": 4348,
      "Mont": 4349,
      "1996": 4350,
      "19th": 4351,
      "ulf": 4352,
      "1950": 4353,
      "marri": 4354,
      "zz": 4355,
      "depression": 4356,
      "think": 4357,
      "Group": 4358,
      "ills": 4359,
      "earned": 4360,
      "ioned": 4361,
      "referred": 4362,
      "produce": 4363,
      "Empire": 4364,
      "cere": 4365,
      "mom": 4366,
      "letter": 4367,
      "Produ": 4368,
      "amount": 4369,
      "vention": 4370,
      "Not": 4371,
      "selected": 4372,
      "render": 4373,
      "46": 4374,
      "dev": 4375,
      "numbers": 4376,
      "distin": 4377,
      "finally": 4378,
      "smaller": 4379,
      "umed": 4380,
      "Pan": 4381,
      "resulted": 4382,
      "Penn": 4383,
      "Jose": 4384,
      "chief": 4385,
      "revol": 4386,
      "Cy": 4387,
      "fighting": 4388,
      "oph": 4389,
      "Out": 4390,
      "bio": 4391,
      "oil": 4392,
      "princ": 4393,
      "gain": 4394,
      "grant": 4395,
      "houses": 4396,
      "vic": 4397,
      "captain": 4398,
      "Camp": 4399,
      "slight": 4400,
      "celebr": 4401,
      "industry": 4402,
      "1994": 4403,
      "Italian": 4404,
      "largely": 4405,
      "wound": 4406,
      "ellow": 4407,
      "RA": 4408,
      "utch": 4409,
      "unit": 4410,
      "bing": 4411,
      "Ver": 4412,
      "commented": 4413,
      "DVD": 4414,
      "Corps": 4415,
      "Fer": 4416,
      "sched": 4417,
      "Ru": 4418,
      "ordin": 4419,
      "audience": 4420,
      "unable": 4421,
      "notes": 4422,
      "education": 4423,
      "acting": 4424,
      "traditional": 4425,
      "Crit": 4426,
      "trade": 4427,
      "artist": 4428,
      "atest": 4429,
      "gent": 4430,
      "legisl": 4431,
      "directly": 4432,
      "Eli": 4433,
      "ift": 4434,
      "improve": 4435,
      "ify": 4436,
      "recover": 4437,
      "Final": 4438,
      "Sto": 4439,
      "attention": 4440,
      "double": 4441,
      "sister": 4442,
      "dol": 4443,
      "refused": 4444,
      "spl": 4445,
      "Viet": 4446,
      "positions": 4447,
      "jun": 4448,
      "royal": 4449,
      "primary": 4450,
      "newsp": 4451,
      "method": 4452,
      "Philip": 4453,
      "coup": 4454,
      "Command": 4455,
      "secret": 4456,
      "Michigan": 4457,
      "imm": 4458,
      "ows": 4459,
      "blood": 4460,
      "lif": 4461,
      "horse": 4462,
      "quarters": 4463,
      "ighter": 4464,
      "180": 4465,
      "male": 4466,
      "below": 4467,
      "gradu": 4468,
      "web": 4469,
      "officer": 4470,
      "aland": 4471,
      "declared": 4472,
      "hero": 4473,
      "kin": 4474,
      "spect": 4475,
      "enjoy": 4476,
      "Long": 4477,
      "science": 4478,
      "Gar": 4479,
      "Wales": 4480,
      "Sol": 4481,
      "meant": 4482,
      "performances": 4483,
      "religious": 4484,
      "iff": 4485,
      "Spe": 4486,
      "standard": 4487,
      "Mass": 4488,
      "alle": 4489,
      "train": 4490,
      "Republic": 4491,
      "undred": 4492,
      "indic": 4493,
      "ray": 4494,
      "Rh": 4495,
      "owned": 4496,
      "mos": 4497,
      "commander": 4498,
      "lav": 4499,
      "middle": 4500,
      "conflict": 4501,
      "More": 4502,
      "izing": 4503,
      "ranch": 4504,
      "regard": 4505,
      "matches": 4506,
      "Cath": 4507,
      "repe": 4508,
      "orders": 4509,
      "ump": 4510,
      "kes": 4511,
      "achi": 4512,
      "model": 4513,
      "records": 4514,
      "Lin": 4515,
      "Democr": 4516,
      "rated": 4517,
      "Acad": 4518,
      "ett": 4519,
      "55": 4520,
      "wear": 4521,
      "Care": 4522,
      "Team": 4523,
      "pul": 4524,
      "competition": 4525,
      "progress": 4526,
      "ipal": 4527,
      "serious": 4528,
      "Ox": 4529,
      "district": 4530,
      "antasy": 4531,
      "Hel": 4532,
      "ka": 4533,
      "Sup": 4534,
      "severe": 4535,
      "vocals": 4536,
      "session": 4537,
      "viewers": 4538,
      "northeast": 4539,
      "Minister": 4540,
      "Several": 4541,
      "icient": 4542,
      "uten": 4543,
      "ady": 4544,
      "thr": 4545,
      "1992": 4546,
      "Major": 4547,
      "abandon": 4548,
      "energy": 4549,
      "document": 4550,
      "Gi": 4551,
      "rapid": 4552,
      "miral": 4553,
      "drum": 4554,
      "Chris": 4555,
      "dro": 4556,
      "centre": 4557,
      "cases": 4558,
      "Mem": 4559,
      "arrow": 4560,
      "forest": 4561,
      "die": 4562,
      "Lit": 4563,
      "continue": 4564,
      "itation": 4565,
      "dut": 4566,
      "orm": 4567,
      "iation": 4568,
      "atre": 4569,
      "traff": 4570,
      "Fore": 4571,
      "44": 4572,
      "theme": 4573,
      "oft": 4574,
      "wick": 4575,
      "Er": 4576,
      "mes": 4577,
      "determin": 4578,
      "writers": 4579,
      "Time": 4580,
      "favour": 4581,
      "nearby": 4582,
      "iled": 4583,
      "highly": 4584,
      "aware": 4585,
      "adult": 4586,
      "ishop": 4587,
      "Zealand": 4588,
      "separate": 4589,
      "combat": 4590,
      "Four": 4591,
      "atal": 4592,
      "Fox": 4593,
      "Soci": 4594,
      "cam": 4595,
      "thes": 4596,
      "Mexico": 4597,
      "effort": 4598,
      "presented": 4599,
      "attended": 4600,
      "culture": 4601,
      "bank": 4602,
      "incorpor": 4603,
      "reduced": 4604,
      "African": 4605,
      "annual": 4606,
      "urt": 4607,
      "edition": 4608,
      "metal": 4609,
      "practice": 4610,
      "20th": 4611,
      "arts": 4612,
      "umn": 4613,
      "except": 4614,
      "ogue": 4615,
      "rossing": 4616,
      "oo": 4617,
      "1930": 4618,
      "means": 4619,
      "sec": 4620,
      "levels": 4621,
      "divided": 4622,
      "Haw": 4623,
      "neigh": 4624,
      "osen": 4625,
      "tried": 4626,
      "ski": 4627,
      "Sum": 4628,
      "contact": 4629,
      "girl": 4630,
      "movie": 4631,
      "rang": 4632,
      "marriage": 4633,
      "omen": 4634,
      "thick": 4635,
      "twenty": 4636,
      "Ev": 4637,
      "accepted": 4638,
      "stating": 4639,
      "1993": 4640,
      "Madonna": 4641,
      "architect": 4642,
      "1991": 4643,
      "McC": 4644,
      "maxim": 4645,
      "aired": 4646,
      "responsible": 4647,
      "serve": 4648,
      "rein": 4649,
      "quality": 4650,
      "hi": 4651,
      "Wall": 4652,
      "mind": 4653,
      "Stone": 4654,
      "candid": 4655,
      "direction": 4656,
      "65": 4657,
      "Dou": 4658,
      "pick": 4659,
      "Scotland": 4660,
      "ona": 4661,
      "charge": 4662,
      "advance": 4663,
      "seem": 4664,
      "bled": 4665,
      "innings": 4666,
      "fru": 4667,
      "rating": 4668,
      "Jones": 4669,
      "words": 4670,
      "ands": 4671,
      "han": 4672,
      "iding": 4673,
      "Fed": 4674,
      "eve": 4675,
      "schools": 4676,
      "Their": 4677,
      "400": 4678,
      "pi": 4679,
      "wealth": 4680,
      "network": 4681,
      "ieve": 4682,
      "Dar": 4683,
      "rare": 4684,
      "managed": 4685,
      "Moun": 4686,
      "mob": 4687,
      "passing": 4688,
      "pret": 4689,
      "Simp": 4690,
      "function": 4691,
      "ria": 4692,
      "award": 4693,
      "ression": 4694,
      "Department": 4695,
      "Greek": 4696,
      "log": 4697,
      "illery": 4698,
      "efforts": 4699,
      "sides": 4700,
      "college": 4701,
      "economic": 4702,
      "pit": 4703,
      "resulting": 4704,
      "meaning": 4705,
      "paid": 4706,
      "ti": 4707,
      "Book": 4708,
      "psy": 4709,
      "dropped": 4710,
      "utenant": 4711,
      "showed": 4712,
      "asion": 4713,
      "guest": 4714,
      "rif": 4715,
      "iving": 4716,
      "Infantry": 4717,
      "inside": 4718,
      "environment": 4719,
      "Three": 4720,
      "mountain": 4721,
      "Rol": 4722,
      "murder": 4723,
      "kept": 4724,
      "hus": 4725,
      "dem": 4726,
      "cust": 4727,
      "allowing": 4728,
      "Americ": 4729,
      "cyclone": 4730,
      "ceremon": 4731,
      "Tim": 4732,
      "winter": 4733,
      "begins": 4734,
      "Bost": 4735,
      "controver": 4736,
      "variety": 4737,
      "morning": 4738,
      "chap": 4739,
      "nest": 4740,
      "Commit": 4741,
      "Games": 4742,
      "voy": 4743,
      "settle": 4744,
      "Williams": 4745,
      "ceeded": 4746,
      "arrest": 4747,
      "waters": 4748,
      "electric": 4749,
      "Service": 4750,
      "ole": 4751,
      "peror": 4752,
      "Sar": 4753,
      "inches": 4754,
      "schol": 4755,
      "farm": 4756,
      "Creek": 4757,
      "titled": 4758,
      "Tre": 4759,
      "Alli": 4760,
      "Records": 4761,
      "activity": 4762,
      "thur": 4763,
      "write": 4764,
      "lam": 4765,
      "airs": 4766,
      "continues": 4767,
      "ding": 4768,
      "rule": 4769,
      "hall": 4770,
      "drew": 4771,
      "Sur": 4772,
      "95": 4773,
      "dance": 4774,
      "symb": 4775,
      "squadron": 4776,
      "path": 4777,
      "oon": 4778,
      "source": 4779,
      "Parliament": 4780,
      "founded": 4781,
      "broke": 4782,
      "Up": 4783,
      "Stan": 4784,
      "SA": 4785,
      "restr": 4786,
      "Men": 4787,
      "pitch": 4788,
      "parents": 4789,
      "Post": 4790,
      "Foot": 4791,
      "News": 4792,
      "Will": 4793,
      "Hor": 4794,
      "hundred": 4795,
      "iced": 4796,
      "conducted": 4797,
      "starting": 4798,
      "phere": 4799,
      "sole": 4800,
      "your": 4801,
      "ites": 4802,
      "strugg": 4803,
      "vised": 4804,
      "Egy": 4805,
      "Ire": 4806,
      "excl": 4807,
      "Society": 4808,
      "Oh": 4809,
      "concert": 4810,
      "ounds": 4811,
      "presence": 4812,
      "1942": 4813,
      "aven": 4814,
      "ram": 4815,
      "Mic": 4816,
      "metres": 4817,
      "Southern": 4818,
      "zer": 4819,
      "spot": 4820,
      "Bridge": 4821,
      "SR": 4822,
      "speech": 4823,
      "BA": 4824,
      "sequence": 4825,
      "exhib": 4826,
      "crow": 4827,
      "selling": 4828,
      "cus": 4829,
      "rot": 4830,
      "multiple": 4831,
      "things": 4832,
      "transferred": 4833,
      "da": 4834,
      "companies": 4835,
      "contrast": 4836,
      "Committee": 4837,
      "portun": 4838,
      "foreign": 4839,
      "deliver": 4840,
      "Arthur": 4841,
      "enemy": 4842,
      "Ba": 4843,
      "pal": 4844,
      "oration": 4845,
      "peaked": 4846,
      "Latin": 4847,
      "pedo": 4848,
      "Captain": 4849,
      "Georg": 4850,
      "obtain": 4851,
      "Govern": 4852,
      "Hung": 4853,
      "isation": 4854,
      "plat": 4855,
      "stories": 4856,
      "recomm": 4857,
      "content": 4858,
      "Like": 4859,
      "Oxford": 4860,
      "becomes": 4861,
      "traffic": 4862,
      "account": 4863,
      "Far": 4864,
      "Admiral": 4865,
      "Spec": 4866,
      "mess": 4867,
      "greater": 4868,
      "Cross": 4869,
      "ami": 4870,
      "scoring": 4871,
      "Chief": 4872,
      "Joseph": 4873,
      "vocal": 4874,
      "concluded": 4875,
      "Secret": 4876,
      "potential": 4877,
      "Harrison": 4878,
      "property": 4879,
      "attempts": 4880,
      "loy": 4881,
      "Boston": 4882,
      "relatively": 4883,
      "Sat": 4884,
      "strength": 4885,
      "Manchester": 4886,
      "extens": 4887,
      "demonstr": 4888,
      "thir": 4889,
      "observed": 4890,
      "primarily": 4891,
      "birds": 4892,
      "federal": 4893,
      "lock": 4894,
      "va": 4895,
      "actually": 4896,
      "Because": 4897,
      "Before": 4898,
      "Egypt": 4899,
      "Kar": 4900,
      "sets": 4901,
      "prise": 4902,
      "financial": 4903,
      "odd": 4904,
      "animals": 4905,
      "64": 4906,
      "osaur": 4907,
      "Class": 4908,
      "collection": 4909,
      "propos": 4910,
      "Jeff": 4911,
      "Hurricane": 4912,
      "journal": 4913,
      "figure": 4914,
      "Sil": 4915,
      "Swed": 4916,
      "prov": 4917,
      "opportun": 4918,
      "onic": 4919,
      "eth": 4920,
      "identified": 4921,
      "featuring": 4922,
      "Commission": 4923,
      "ott": 4924,
      "repair": 4925,
      "tourn": 4926,
      "Life": 4927,
      "ky": 4928,
      "Den": 4929,
      "1944": 4930,
      "istics": 4931,
      "bles": 4932,
      "missed": 4933,
      "scale": 4934,
      "withdraw": 4935,
      "78": 4936,
      "distance": 4937,
      "situation": 4938,
      "Little": 4939,
      "mechan": 4940,
      "share": 4941,
      "Battalion": 4942,
      "versions": 4943,
      "independent": 4944,
      "passeng": 4945,
      "mond": 4946,
      "extreme": 4947,
      "corn": 4948,
      "ange": 4949,
      "Ram": 4950,
      "poet": 4951,
      "41": 4952,
      "uge": 4953,
      "thous": 4954,
      "anger": 4955,
      "Fred": 4956,
      "Dire": 4957,
      "resist": 4958,
      "Ken": 4959,
      "annel": 4960,
      "BBC": 4961,
      "fa": 4962,
      "collabor": 4963,
      "Paris": 4964,
      "Brad": 4965,
      "anna": 4966,
      "inking": 4967,
      "slightly": 4968,
      "image": 4969,
      "Series": 4970,
      "faced": 4971,
      "resh": 4972,
      "replac": 4973,
      "Fre": 4974,
      "olf": 4975,
      "suppl": 4976,
      "IS": 4977,
      "concent": 4978,
      "perial": 4979,
      "Gil": 4980,
      "sa": 4981,
      "here": 4982,
      "torpedo": 4983,
      "lap": 4984,
      "seconds": 4985,
      "Line": 4986,
      "150": 4987,
      "today": 4988,
      "colour": 4989,
      "Dun": 4990,
      "42": 4991,
      "ada": 4992,
      "Ann": 4993,
      "alleg": 4994,
      "1990": 4995,
      "trial": 4996,
      "completely": 4997,
      "ultimately": 4998,
      "proved": 4999
    },
    "merges": [
      [
        "t",
        "h"
      ],
      [
        "i",
        "n"
      ],
      [
        "e",
        "r"
      ],
      [
        "a",
        "n"
      ],
      [
        "th",
        "e"
      ],
      [
        "o",
        "n"
      ],
      [
        "e",
        "d"
      ],
      [
        "r",
        "e"
      ],
      [
        "a",
        "t"
      ],
      [
        "e",
        "n"
      ],
      [
        "o",
        "r"
      ],
      [
        "a",
        "l"
      ],
      [
        "s",
        "t"
      ],
      [
        "a",
        "r"
      ],
      [
        "an",
        "d"
      ],
      [
        "a",
        "s"
      ],
      [
        "o",
        "f"
      ],
      [
        "in",
        "g"
      ],
      [
        "e",
        "s"
      ],
      [
        "t",
        "o"
      ],
      [
        "i",
        "s"
      ],
      [
        "i",
        "t"
      ],
      [
        "o",
        "u"
      ],
      [
        "i",
        "c"
      ],
      [
        "i",
        "on"
      ],
      [
        "l",
        "e"
      ],
      [
        "h",
        "e"
      ],
      [
        "r",
        "o"
      ],
      [
        "i",
        "l"
      ],
      [
        "a",
        "c"
      ],
      [
        "en",
        "t"
      ],
      [
        "a",
        "d"
      ],
      [
        "s",
        "e"
      ],
      [
        "u",
        "n"
      ],
      [
        "a",
        "m"
      ],
      [
        "o",
        "m"
      ],
      [
        "b",
        "e"
      ],
      [
        "l",
        "y"
      ],
      [
        "w",
        "as"
      ],
      [
        "f",
        "or"
      ],
      [
        "c",
        "h"
      ],
      [
        "v",
        "e"
      ],
      [
        "d",
        "e"
      ],
      [
        "u",
        "r"
      ],
      [
        "o",
        "l"
      ],
      [
        "i",
        "r"
      ],
      [
        "T",
        "he"
      ],
      [
        "i",
        "m"
      ],
      [
        "-",
        "@"
      ],
      [
        "@",
        "-@"
      ],
      [
        "i",
        "g"
      ],
      [
        "v",
        "er"
      ],
      [
        "t",
        "er"
      ],
      [
        "w",
        "h"
      ],
      [
        "o",
        "w"
      ],
      [
        "i",
        "th"
      ],
      [
        "c",
        "e"
      ],
      [
        "a",
        "y"
      ],
      [
        "c",
        "on"
      ],
      [
        "i",
        "d"
      ],
      [
        "at",
        "ion"
      ],
      [
        "c",
        "t"
      ],
      [
        "w",
        "ith"
      ],
      [
        "th",
        "at"
      ],
      [
        "a",
        "g"
      ],
      [
        "t",
        "e"
      ],
      [
        "b",
        "y"
      ],
      [
        "u",
        "s"
      ],
      [
        "o",
        "t"
      ],
      [
        "er",
        "e"
      ],
      [
        "e",
        "l"
      ],
      [
        "r",
        "i"
      ],
      [
        "u",
        "l"
      ],
      [
        "a",
        "p"
      ],
      [
        "u",
        "t"
      ],
      [
        "1",
        "9"
      ],
      [
        "e",
        "t"
      ],
      [
        "re",
        "s"
      ],
      [
        "a",
        "in"
      ],
      [
        "er",
        "s"
      ],
      [
        "o",
        "p"
      ],
      [
        "p",
        "l"
      ],
      [
        "c",
        "om"
      ],
      [
        "h",
        "is"
      ],
      [
        "ro",
        "m"
      ],
      [
        "u",
        "m"
      ],
      [
        "al",
        "l"
      ],
      [
        "0",
        "0"
      ],
      [
        "ou",
        "n"
      ],
      [
        "a",
        "b"
      ],
      [
        "un",
        "k"
      ],
      [
        "m",
        "o"
      ],
      [
        "i",
        "st"
      ],
      [
        "s",
        "u"
      ],
      [
        "n",
        "e"
      ],
      [
        "p",
        "ro"
      ],
      [
        "s",
        "h"
      ],
      [
        "f",
        "rom"
      ],
      [
        "p",
        "e"
      ],
      [
        "I",
        "n"
      ],
      [
        "c",
        "l"
      ],
      [
        "at",
        "e"
      ],
      [
        "a",
        "re"
      ],
      [
        "ar",
        "t"
      ],
      [
        "l",
        "i"
      ],
      [
        "t",
        "r"
      ],
      [
        "th",
        "er"
      ],
      [
        "ig",
        "h"
      ],
      [
        "o",
        "s"
      ],
      [
        "d",
        "i"
      ],
      [
        "e",
        "m"
      ],
      [
        "e",
        "x"
      ],
      [
        "b",
        "er"
      ],
      [
        "e",
        "st"
      ],
      [
        "ic",
        "h"
      ],
      [
        "w",
        "ere"
      ],
      [
        "l",
        "d"
      ],
      [
        "ar",
        "d"
      ],
      [
        "il",
        "l"
      ],
      [
        "o",
        "c"
      ],
      [
        "a",
        "k"
      ],
      [
        "a",
        "st"
      ],
      [
        "i",
        "es"
      ],
      [
        "an",
        "t"
      ],
      [
        "on",
        "g"
      ],
      [
        "p",
        "er"
      ],
      [
        "q",
        "u"
      ],
      [
        "g",
        "h"
      ],
      [
        "m",
        "ent"
      ],
      [
        "at",
        "ed"
      ],
      [
        "i",
        "ve"
      ],
      [
        "ou",
        "t"
      ],
      [
        "m",
        "an"
      ],
      [
        "am",
        "e"
      ],
      [
        "it",
        "y"
      ],
      [
        "f",
        "e"
      ],
      [
        "es",
        "s"
      ],
      [
        "ou",
        "r"
      ],
      [
        "h",
        "ad"
      ],
      [
        "o",
        "d"
      ],
      [
        "en",
        "d"
      ],
      [
        "is",
        "h"
      ],
      [
        "ac",
        "k"
      ],
      [
        "or",
        "t"
      ],
      [
        "on",
        "e"
      ],
      [
        "al",
        "s"
      ],
      [
        "e",
        "ar"
      ],
      [
        "a",
        "v"
      ],
      [
        "o",
        "ver"
      ],
      [
        "g",
        "e"
      ],
      [
        "t",
        "w"
      ],
      [
        "a",
        "f"
      ],
      [
        "wh",
        "ich"
      ],
      [
        "i",
        "p"
      ],
      [
        "ou",
        "gh"
      ],
      [
        "oun",
        "d"
      ],
      [
        "b",
        "ut"
      ],
      [
        "n",
        "ot"
      ],
      [
        "v",
        "i"
      ],
      [
        "ac",
        "t"
      ],
      [
        "g",
        "r"
      ],
      [
        "as",
        "s"
      ],
      [
        "or",
        "d"
      ],
      [
        "al",
        "ly"
      ],
      [
        "a",
        "ve"
      ],
      [
        "st",
        "r"
      ],
      [
        "igh",
        "t"
      ],
      [
        "in",
        "e"
      ],
      [
        "h",
        "er"
      ],
      [
        "ar",
        "y"
      ],
      [
        "r",
        "it"
      ],
      [
        "it",
        "s"
      ],
      [
        "d",
        "u"
      ],
      [
        "i",
        "v"
      ],
      [
        "u",
        "d"
      ],
      [
        "p",
        "r"
      ],
      [
        "e",
        "p"
      ],
      [
        "i",
        "an"
      ],
      [
        "i",
        "f"
      ],
      [
        "S",
        "t"
      ],
      [
        "C",
        "h"
      ],
      [
        "o",
        "re"
      ],
      [
        "2",
        "0"
      ],
      [
        "f",
        "ir"
      ],
      [
        "2",
        "00"
      ],
      [
        "u",
        "p"
      ],
      [
        "e",
        "w"
      ],
      [
        "ou",
        "ld"
      ],
      [
        "i",
        "a"
      ],
      [
        "ou",
        "s"
      ],
      [
        "ow",
        "n"
      ],
      [
        "d",
        "er"
      ],
      [
        "a",
        "u"
      ],
      [
        "b",
        "o"
      ],
      [
        "b",
        "l"
      ],
      [
        "a",
        "w"
      ],
      [
        "ct",
        "ion"
      ],
      [
        "w",
        "or"
      ],
      [
        "com",
        "p"
      ],
      [
        "e",
        "v"
      ],
      [
        "ac",
        "h"
      ],
      [
        "ag",
        "e"
      ],
      [
        "k",
        "e"
      ],
      [
        "at",
        "t"
      ],
      [
        "fir",
        "st"
      ],
      [
        "l",
        "and"
      ],
      [
        "p",
        "ort"
      ],
      [
        "ig",
        "n"
      ],
      [
        "it",
        "ion"
      ],
      [
        "for",
        "m"
      ],
      [
        "the",
        "ir"
      ],
      [
        "s",
        "i"
      ],
      [
        "ic",
        "al"
      ],
      [
        "l",
        "ow"
      ],
      [
        "s",
        "c"
      ],
      [
        "l",
        "o"
      ],
      [
        "i",
        "al"
      ],
      [
        "s",
        "er"
      ],
      [
        "t",
        "im"
      ],
      [
        "at",
        "er"
      ],
      [
        "p",
        "o"
      ],
      [
        "l",
        "l"
      ],
      [
        "als",
        "o"
      ],
      [
        "H",
        "e"
      ],
      [
        "wh",
        "o"
      ],
      [
        "b",
        "r"
      ],
      [
        "p",
        "art"
      ],
      [
        "in",
        "t"
      ],
      [
        "u",
        "re"
      ],
      [
        "1",
        "8"
      ],
      [
        "h",
        "as"
      ],
      [
        "o",
        "ther"
      ],
      [
        "re",
        "c"
      ],
      [
        "h",
        "ave"
      ],
      [
        "pl",
        "ay"
      ],
      [
        "om",
        "e"
      ],
      [
        "an",
        "s"
      ],
      [
        "p",
        "t"
      ],
      [
        "u",
        "st"
      ],
      [
        "con",
        "t"
      ],
      [
        "of",
        "f"
      ],
      [
        "re",
        "e"
      ],
      [
        "o",
        "k"
      ],
      [
        ".",
        "@"
      ],
      [
        "@",
        ".@"
      ],
      [
        "tw",
        "o"
      ],
      [
        "i",
        "le"
      ],
      [
        "en",
        "ce"
      ],
      [
        "p",
        "res"
      ],
      [
        "ur",
        "ing"
      ],
      [
        "be",
        "en"
      ],
      [
        "m",
        "e"
      ],
      [
        "ic",
        "e"
      ],
      [
        "an",
        "ce"
      ],
      [
        "w",
        "e"
      ],
      [
        "m",
        "er"
      ],
      [
        ",",
        "@"
      ],
      [
        "@",
        ",@"
      ],
      [
        "d",
        "is"
      ],
      [
        "20",
        "1"
      ],
      [
        "p",
        "os"
      ],
      [
        "T",
        "h"
      ],
      [
        "I",
        "t"
      ],
      [
        "th",
        "is"
      ],
      [
        "or",
        "y"
      ],
      [
        "y",
        "ear"
      ],
      [
        "af",
        "ter"
      ],
      [
        "re",
        "n"
      ],
      [
        "p",
        "h"
      ],
      [
        "ul",
        "t"
      ],
      [
        "c",
        "re"
      ],
      [
        "d",
        "es"
      ],
      [
        "el",
        "l"
      ],
      [
        "ac",
        "e"
      ],
      [
        "v",
        "ed"
      ],
      [
        "f",
        "in"
      ],
      [
        "ar",
        "k"
      ],
      [
        "ad",
        "e"
      ],
      [
        "the",
        "y"
      ],
      [
        "A",
        "n"
      ],
      [
        "ab",
        "le"
      ],
      [
        "m",
        "on"
      ],
      [
        "c",
        "o"
      ],
      [
        "s",
        "p"
      ],
      [
        "in",
        "cl"
      ],
      [
        "u",
        "e"
      ],
      [
        "it",
        "e"
      ],
      [
        "a",
        "il"
      ],
      [
        "U",
        "n"
      ],
      [
        "e",
        "ver"
      ],
      [
        "wor",
        "k"
      ],
      [
        "an",
        "g"
      ],
      [
        "s",
        "ion"
      ],
      [
        "a",
        "ir"
      ],
      [
        "f",
        "f"
      ],
      [
        "tim",
        "e"
      ],
      [
        "in",
        "ter"
      ],
      [
        "ur",
        "n"
      ],
      [
        "w",
        "ould"
      ],
      [
        "ation",
        "s"
      ],
      [
        "sh",
        "ip"
      ],
      [
        "p",
        "re"
      ],
      [
        "o",
        "g"
      ],
      [
        "c",
        "ed"
      ],
      [
        "in",
        "to"
      ],
      [
        "c",
        "ent"
      ],
      [
        "h",
        "im"
      ],
      [
        "c",
        "r"
      ],
      [
        "i",
        "z"
      ],
      [
        "ic",
        "k"
      ],
      [
        "ve",
        "l"
      ],
      [
        "s",
        "pe"
      ],
      [
        "s",
        "he"
      ],
      [
        "m",
        "ber"
      ],
      [
        "ic",
        "t"
      ],
      [
        "at",
        "es"
      ],
      [
        "n",
        "o"
      ],
      [
        "i",
        "e"
      ],
      [
        "as",
        "ed"
      ],
      [
        "mo",
        "re"
      ],
      [
        "it",
        "ed"
      ],
      [
        "il",
        "m"
      ],
      [
        "m",
        "in"
      ],
      [
        "ol",
        "d"
      ],
      [
        "w",
        "ay"
      ],
      [
        "t",
        "y"
      ],
      [
        "i",
        "re"
      ],
      [
        "mo",
        "st"
      ],
      [
        "c",
        "es"
      ],
      [
        "ne",
        "w"
      ],
      [
        "am",
        "p"
      ],
      [
        "s",
        "on"
      ],
      [
        "f",
        "ore"
      ],
      [
        "m",
        "ain"
      ],
      [
        "A",
        "r"
      ],
      [
        "be",
        "c"
      ],
      [
        "A",
        "l"
      ],
      [
        "r",
        "y"
      ],
      [
        "an",
        "y"
      ],
      [
        "t",
        "en"
      ],
      [
        "as",
        "e"
      ],
      [
        "re",
        "t"
      ],
      [
        "us",
        "ed"
      ],
      [
        "as",
        "on"
      ],
      [
        "f",
        "l"
      ],
      [
        "an",
        "n"
      ],
      [
        "o",
        "od"
      ],
      [
        "incl",
        "ud"
      ],
      [
        "con",
        "d"
      ],
      [
        "ct",
        "ed"
      ],
      [
        "c",
        "ess"
      ],
      [
        "ing",
        "s"
      ],
      [
        "r",
        "an"
      ],
      [
        "in",
        "d"
      ],
      [
        "v",
        "is"
      ],
      [
        "or",
        "s"
      ],
      [
        "r",
        "ed"
      ],
      [
        "wh",
        "en"
      ],
      [
        "f",
        "ilm"
      ],
      [
        "d",
        "ay"
      ],
      [
        "l",
        "es"
      ],
      [
        "t",
        "ed"
      ],
      [
        "er",
        "ed"
      ],
      [
        "r",
        "ough"
      ],
      [
        "a",
        "th"
      ],
      [
        "il",
        "d"
      ],
      [
        "com",
        "m"
      ],
      [
        "w",
        "ard"
      ],
      [
        "t",
        "on"
      ],
      [
        "c",
        "ol"
      ],
      [
        "ak",
        "e"
      ],
      [
        "ic",
        "an"
      ],
      [
        "M",
        "ar"
      ],
      [
        "A",
        "u"
      ],
      [
        "o",
        "b"
      ],
      [
        "b",
        "u"
      ],
      [
        "th",
        "ough"
      ],
      [
        "g",
        "an"
      ],
      [
        "t",
        "s"
      ],
      [
        "e",
        "en"
      ],
      [
        "ion",
        "s"
      ],
      [
        "re",
        "g"
      ],
      [
        "s",
        "y"
      ],
      [
        "en",
        "s"
      ],
      [
        "W",
        "h"
      ],
      [
        "d",
        "uring"
      ],
      [
        "r",
        "a"
      ],
      [
        "th",
        "an"
      ],
      [
        "R",
        "e"
      ],
      [
        "O",
        "n"
      ],
      [
        "D",
        "e"
      ],
      [
        "ag",
        "ain"
      ],
      [
        "g",
        "ame"
      ],
      [
        "o",
        "se"
      ],
      [
        "s",
        "o"
      ],
      [
        "un",
        "der"
      ],
      [
        "b",
        "le"
      ],
      [
        "u",
        "bl"
      ],
      [
        "g",
        "en"
      ],
      [
        "n",
        "or"
      ],
      [
        "ch",
        "ar"
      ],
      [
        "pro",
        "du"
      ],
      [
        "19",
        "9"
      ],
      [
        "on",
        "ly"
      ],
      [
        "c",
        "k"
      ],
      [
        "ol",
        "low"
      ],
      [
        "the",
        "m"
      ],
      [
        "ab",
        "out"
      ],
      [
        "ro",
        "w"
      ],
      [
        "c",
        "an"
      ],
      [
        "ent",
        "s"
      ],
      [
        "wh",
        "ile"
      ],
      [
        "N",
        "ew"
      ],
      [
        "i",
        "de"
      ],
      [
        "ation",
        "al"
      ],
      [
        "s",
        "ome"
      ],
      [
        "s",
        "ong"
      ],
      [
        "E",
        "n"
      ],
      [
        "re",
        "le"
      ],
      [
        "l",
        "ater"
      ],
      [
        "o",
        "y"
      ],
      [
        "l",
        "ed"
      ],
      [
        "tw",
        "een"
      ],
      [
        "ou",
        "th"
      ],
      [
        "be",
        "tween"
      ],
      [
        "e",
        "le"
      ],
      [
        "s",
        "ing"
      ],
      [
        "th",
        "ree"
      ],
      [
        "1",
        "0"
      ],
      [
        "at",
        "ing"
      ],
      [
        "A",
        "f"
      ],
      [
        "wh",
        "ere"
      ],
      [
        "th",
        "rough"
      ],
      [
        "n",
        "um"
      ],
      [
        "r",
        "on"
      ],
      [
        "c",
        "oun"
      ],
      [
        "a",
        "id"
      ],
      [
        "A",
        "s"
      ],
      [
        "se",
        "ason"
      ],
      [
        "ic",
        "s"
      ],
      [
        "vi",
        "ew"
      ],
      [
        "f",
        "ul"
      ],
      [
        "l",
        "ar"
      ],
      [
        "con",
        "s"
      ],
      [
        "A",
        "mer"
      ],
      [
        "m",
        "y"
      ],
      [
        "t",
        "ain"
      ],
      [
        "er",
        "n"
      ],
      [
        "w",
        "rit"
      ],
      [
        "str",
        "u"
      ],
      [
        "su",
        "b"
      ],
      [
        "i",
        "ed"
      ],
      [
        "the",
        "n"
      ],
      [
        "re",
        "l"
      ],
      [
        "i",
        "ver"
      ],
      [
        "k",
        "n"
      ],
      [
        "00",
        "0"
      ],
      [
        "ul",
        "ar"
      ],
      [
        "d",
        "r"
      ],
      [
        "L",
        "e"
      ],
      [
        "ter",
        "s"
      ],
      [
        "J",
        "o"
      ],
      [
        "se",
        "cond"
      ],
      [
        "h",
        "igh"
      ],
      [
        "se",
        "l"
      ],
      [
        "m",
        "ade"
      ],
      [
        "m",
        "ed"
      ],
      [
        "se",
        "t"
      ],
      [
        "C",
        "om"
      ],
      [
        "e",
        "f"
      ],
      [
        "am",
        "es"
      ],
      [
        "b",
        "um"
      ],
      [
        "rec",
        "ord"
      ],
      [
        "f",
        "our"
      ],
      [
        "f",
        "ollow"
      ],
      [
        "d",
        "o"
      ],
      [
        "spe",
        "c"
      ],
      [
        "g",
        "o"
      ],
      [
        "su",
        "ch"
      ],
      [
        "l",
        "oc"
      ],
      [
        "1",
        "7"
      ],
      [
        "s",
        "ur"
      ],
      [
        "ish",
        "ed"
      ],
      [
        "c",
        "ap"
      ],
      [
        "ar",
        "ri"
      ],
      [
        "en",
        "g"
      ],
      [
        "u",
        "b"
      ],
      [
        "be",
        "fore"
      ],
      [
        "at",
        "ch"
      ],
      [
        "N",
        "o"
      ],
      [
        "b",
        "ack"
      ],
      [
        "th",
        "ere"
      ],
      [
        "c",
        "ur"
      ],
      [
        "te",
        "am"
      ],
      [
        "w",
        "ell"
      ],
      [
        "m",
        "us"
      ],
      [
        "1",
        "5"
      ],
      [
        "year",
        "s"
      ],
      [
        "i",
        "el"
      ],
      [
        "ap",
        "pe"
      ],
      [
        "ch",
        "o"
      ],
      [
        "v",
        "en"
      ],
      [
        "m",
        "a"
      ],
      [
        "ad",
        "d"
      ],
      [
        "in",
        "n"
      ],
      [
        "T",
        "his"
      ],
      [
        "id",
        "ent"
      ],
      [
        "su",
        "p"
      ],
      [
        "k",
        "s"
      ],
      [
        "p",
        "ol"
      ],
      [
        "al",
        "bum"
      ],
      [
        "C",
        "on"
      ],
      [
        "if",
        "ic"
      ],
      [
        "p",
        "ubl"
      ],
      [
        "ro",
        "s"
      ],
      [
        "re",
        "at"
      ],
      [
        "ow",
        "ever"
      ],
      [
        "il",
        "y"
      ],
      [
        "c",
        "all"
      ],
      [
        ".",
        "."
      ],
      [
        "j",
        "e"
      ],
      [
        "f",
        "er"
      ],
      [
        "te",
        "m"
      ],
      [
        "N",
        "or"
      ],
      [
        "S",
        "h"
      ],
      [
        "g",
        "u"
      ],
      [
        "u",
        "al"
      ],
      [
        "at",
        "ive"
      ],
      [
        "man",
        "y"
      ],
      [
        "be",
        "ing"
      ],
      [
        "po",
        "int"
      ],
      [
        "un",
        "t"
      ],
      [
        "ep",
        "is"
      ],
      [
        "al",
        "e"
      ],
      [
        "u",
        "ary"
      ],
      [
        "ou",
        "p"
      ],
      [
        "on",
        "d"
      ],
      [
        "in",
        "ce"
      ],
      [
        "o",
        "de"
      ],
      [
        "vel",
        "op"
      ],
      [
        "again",
        "st"
      ],
      [
        "A",
        "t"
      ],
      [
        "num",
        "ber"
      ],
      [
        "ur",
        "y"
      ],
      [
        "u",
        "se"
      ],
      [
        "p",
        "ed"
      ],
      [
        "si",
        "de"
      ],
      [
        "le",
        "ad"
      ],
      [
        "in",
        "s"
      ],
      [
        "sh",
        "ow"
      ],
      [
        "char",
        "ac"
      ],
      [
        "Af",
        "ter"
      ],
      [
        "f",
        "t"
      ],
      [
        "se",
        "ver"
      ],
      [
        "B",
        "e"
      ],
      [
        "m",
        "em"
      ],
      [
        "1",
        "6"
      ],
      [
        "au",
        "se"
      ],
      [
        "w",
        "ar"
      ],
      [
        "p",
        "ar"
      ],
      [
        "appe",
        "ar"
      ],
      [
        "l",
        "ong"
      ],
      [
        "f",
        "ound"
      ],
      [
        "re",
        "ce"
      ],
      [
        "i",
        "ous"
      ],
      [
        "bec",
        "ame"
      ],
      [
        "1",
        "2"
      ],
      [
        "B",
        "rit"
      ],
      [
        "as",
        "h"
      ],
      [
        "includ",
        "ing"
      ],
      [
        "li",
        "ke"
      ],
      [
        "Un",
        "ited"
      ],
      [
        "ser",
        "v"
      ],
      [
        "i",
        "o"
      ],
      [
        "bo",
        "th"
      ],
      [
        "h",
        "n"
      ],
      [
        "es",
        "e"
      ],
      [
        "or",
        "n"
      ],
      [
        "ser",
        "ies"
      ],
      [
        "S",
        "e"
      ],
      [
        "19",
        "8"
      ],
      [
        "fe",
        "at"
      ],
      [
        "is",
        "e"
      ],
      [
        "c",
        "y"
      ],
      [
        "o",
        "st"
      ],
      [
        "l",
        "ine"
      ],
      [
        "c",
        "ri"
      ],
      [
        "m",
        "i"
      ],
      [
        "ig",
        "in"
      ],
      [
        "19",
        "4"
      ],
      [
        "d",
        "id"
      ],
      [
        "end",
        "ed"
      ],
      [
        "S",
        "he"
      ],
      [
        "er",
        "al"
      ],
      [
        "de",
        "velop"
      ],
      [
        "ro",
        "p"
      ],
      [
        "t",
        "ri"
      ],
      [
        "m",
        "ill"
      ],
      [
        "cont",
        "in"
      ],
      [
        "ment",
        "s"
      ],
      [
        "di",
        "re"
      ],
      [
        "le",
        "y"
      ],
      [
        "c",
        "er"
      ],
      [
        "it",
        "ies"
      ],
      [
        "u",
        "res"
      ],
      [
        "d",
        "own"
      ],
      [
        "oc",
        "k"
      ],
      [
        "En",
        "g"
      ],
      [
        "su",
        "c"
      ],
      [
        "p",
        "op"
      ],
      [
        "3",
        "0"
      ],
      [
        "di",
        "ff"
      ],
      [
        "he",
        "ad"
      ],
      [
        "Jo",
        "hn"
      ],
      [
        "de",
        "c"
      ],
      [
        "ro",
        "ad"
      ],
      [
        "r",
        "un"
      ],
      [
        "p",
        "ass"
      ],
      [
        "a",
        "z"
      ],
      [
        "epis",
        "ode"
      ],
      [
        "ir",
        "d"
      ],
      [
        "u",
        "ch"
      ],
      [
        "W",
        "ar"
      ],
      [
        "s",
        "aid"
      ],
      [
        "le",
        "g"
      ],
      [
        "w",
        "est"
      ],
      [
        "ou",
        "se"
      ],
      [
        "W",
        "or"
      ],
      [
        "c",
        "ould"
      ],
      [
        "p",
        "or"
      ],
      [
        "res",
        "s"
      ],
      [
        "ers",
        "on"
      ],
      [
        "sever",
        "al"
      ],
      [
        "m",
        "is"
      ],
      [
        "Amer",
        "ican"
      ],
      [
        "kn",
        "own"
      ],
      [
        "per",
        "i"
      ],
      [
        "R",
        "o"
      ],
      [
        "or",
        "igin"
      ],
      [
        "v",
        "id"
      ],
      [
        "v",
        "ol"
      ],
      [
        "l",
        "in"
      ],
      [
        "iel",
        "d"
      ],
      [
        "19",
        "7"
      ],
      [
        "c",
        "he"
      ],
      [
        "comp",
        "le"
      ],
      [
        "ar",
        "ch"
      ],
      [
        "re",
        "st"
      ],
      [
        "is",
        "ed"
      ],
      [
        "19",
        "6"
      ],
      [
        "1",
        "4"
      ],
      [
        "I",
        "I"
      ],
      [
        "c",
        "ord"
      ],
      [
        "F",
        "or"
      ],
      [
        "u",
        "ally"
      ],
      [
        "s",
        "ign"
      ],
      [
        "sel",
        "f"
      ],
      [
        "mus",
        "ic"
      ],
      [
        "G",
        "r"
      ],
      [
        "st",
        "em"
      ],
      [
        "c",
        "ar"
      ],
      [
        "re",
        "main"
      ],
      [
        "ret",
        "urn"
      ],
      [
        "b",
        "ed"
      ],
      [
        "ce",
        "pt"
      ],
      [
        "be",
        "gan"
      ],
      [
        "op",
        "er"
      ],
      [
        "des",
        "ign"
      ],
      [
        "G",
        "er"
      ],
      [
        "tr",
        "y"
      ],
      [
        "B",
        "r"
      ],
      [
        "st",
        "e"
      ],
      [
        "t",
        "ing"
      ],
      [
        "op",
        "le"
      ],
      [
        "cho",
        "ol"
      ],
      [
        "s",
        "m"
      ],
      [
        "st",
        "ate"
      ],
      [
        "ear",
        "ly"
      ],
      [
        "1",
        "3"
      ],
      [
        "ak",
        "ing"
      ],
      [
        "he",
        "l"
      ],
      [
        "a",
        "h"
      ],
      [
        "c",
        "over"
      ],
      [
        "rele",
        "ased"
      ],
      [
        "ne",
        "ar"
      ],
      [
        "d",
        "ist"
      ],
      [
        "b",
        "all"
      ],
      [
        "iv",
        "ed"
      ],
      [
        "des",
        "cri"
      ],
      [
        "C",
        "ol"
      ],
      [
        "unt",
        "il"
      ],
      [
        "U",
        "S"
      ],
      [
        "call",
        "ed"
      ],
      [
        "je",
        "ct"
      ],
      [
        "un",
        "e"
      ],
      [
        "suc",
        "cess"
      ],
      [
        "op",
        "en"
      ],
      [
        "pres",
        "ent"
      ],
      [
        "pl",
        "ac"
      ],
      [
        "tr",
        "ans"
      ],
      [
        "m",
        "en"
      ],
      [
        "S",
        "c"
      ],
      [
        "T",
        "r"
      ],
      [
        "f",
        "am"
      ],
      [
        "ar",
        "r"
      ],
      [
        "h",
        "ist"
      ],
      [
        "ros",
        "s"
      ],
      [
        "ol",
        "og"
      ],
      [
        "M",
        "ay"
      ],
      [
        "k",
        "ing"
      ],
      [
        "h",
        "y"
      ],
      [
        "off",
        "ic"
      ],
      [
        "g",
        "et"
      ],
      [
        "b",
        "and"
      ],
      [
        "i",
        "ally"
      ],
      [
        "c",
        "rit"
      ],
      [
        "over",
        "n"
      ],
      [
        "g",
        "g"
      ],
      [
        "v",
        "al"
      ],
      [
        "gr",
        "oup"
      ],
      [
        "g",
        "ust"
      ],
      [
        "l",
        "ess"
      ],
      [
        "ist",
        "s"
      ],
      [
        "m",
        "ay"
      ],
      [
        "al",
        "ong"
      ],
      [
        "v",
        "ent"
      ],
      [
        "v",
        "es"
      ],
      [
        "m",
        "s"
      ],
      [
        "5",
        "0"
      ],
      [
        "n",
        "am"
      ],
      [
        "b",
        "ers"
      ],
      [
        "mill",
        "ion"
      ],
      [
        "ow",
        "er"
      ],
      [
        "C",
        "l"
      ],
      [
        "m",
        "il"
      ],
      [
        "Brit",
        "ish"
      ],
      [
        "to",
        "w"
      ],
      [
        "j",
        "or"
      ],
      [
        "x",
        "t"
      ],
      [
        "v",
        "ing"
      ],
      [
        "S",
        "ep"
      ],
      [
        "s",
        "im"
      ],
      [
        "b",
        "re"
      ],
      [
        "c",
        "ast"
      ],
      [
        "the",
        "se"
      ],
      [
        "m",
        "et"
      ],
      [
        "com",
        "e"
      ],
      [
        "en",
        "n"
      ],
      [
        "fe",
        "ct"
      ],
      [
        "a",
        "ther"
      ],
      [
        "r",
        "ic"
      ],
      [
        "iz",
        "ed"
      ],
      [
        "att",
        "ack"
      ],
      [
        "oc",
        "i"
      ],
      [
        "c",
        "ut"
      ],
      [
        "te",
        "mber"
      ],
      [
        "c",
        "le"
      ],
      [
        "W",
        "il"
      ],
      [
        "n",
        "ational"
      ],
      [
        "str",
        "al"
      ],
      [
        "S",
        "p"
      ],
      [
        "n",
        "ow"
      ],
      [
        "Sep",
        "tember"
      ],
      [
        "Au",
        "gust"
      ],
      [
        "Wor",
        "ld"
      ],
      [
        "ur",
        "ed"
      ],
      [
        "St",
        "ates"
      ],
      [
        "re",
        "qu"
      ],
      [
        "st",
        "or"
      ],
      [
        "le",
        "t"
      ],
      [
        "to",
        "ok"
      ],
      [
        "b",
        "att"
      ],
      [
        "contin",
        "u"
      ],
      [
        "lar",
        "ge"
      ],
      [
        "s",
        "ame"
      ],
      [
        "pe",
        "ople"
      ],
      [
        "J",
        "u"
      ],
      [
        "de",
        "p"
      ],
      [
        "charac",
        "ter"
      ],
      [
        "o",
        "ot"
      ],
      [
        "un",
        "d"
      ],
      [
        "bec",
        "ause"
      ],
      [
        "vi",
        "de"
      ],
      [
        "C",
        "ar"
      ],
      [
        "i",
        "b"
      ],
      [
        "l",
        "ight"
      ],
      [
        "v",
        "ar"
      ],
      [
        "gr",
        "ap"
      ],
      [
        "pos",
        "ition"
      ],
      [
        "re",
        "ad"
      ],
      [
        "1",
        "1"
      ],
      [
        "is",
        "m"
      ],
      [
        "res",
        "ult"
      ],
      [
        "ar",
        "ound"
      ],
      [
        "ir",
        "ed"
      ],
      [
        "O",
        "c"
      ],
      [
        "st",
        "art"
      ],
      [
        "I",
        "s"
      ],
      [
        "k",
        "m"
      ],
      [
        "av",
        "ing"
      ],
      [
        "cl",
        "ass"
      ],
      [
        "ct",
        "or"
      ],
      [
        "we",
        "e"
      ],
      [
        "iver",
        "s"
      ],
      [
        "B",
        "l"
      ],
      [
        "J",
        "an"
      ],
      [
        "s",
        "k"
      ],
      [
        "A",
        "d"
      ],
      [
        "c",
        "our"
      ],
      [
        "a",
        "im"
      ],
      [
        "Au",
        "stral"
      ],
      [
        "p",
        "on"
      ],
      [
        "form",
        "ed"
      ],
      [
        "sup",
        "port"
      ],
      [
        "o",
        "th"
      ],
      [
        "vis",
        "ion"
      ],
      [
        "m",
        "ark"
      ],
      [
        "l",
        "a"
      ],
      [
        "bu",
        "ild"
      ],
      [
        "c",
        "a"
      ],
      [
        "follow",
        "ing"
      ],
      [
        "in",
        "c"
      ],
      [
        "nor",
        "th"
      ],
      [
        "li",
        "fe"
      ],
      [
        "all",
        "ow"
      ],
      [
        "ant",
        "s"
      ],
      [
        "si",
        "x"
      ],
      [
        "sy",
        "stem"
      ],
      [
        "t",
        "al"
      ],
      [
        "H",
        "owever"
      ],
      [
        "or",
        "k"
      ],
      [
        "is",
        "on"
      ],
      [
        "tr",
        "ack"
      ],
      [
        "Oc",
        "to"
      ],
      [
        "P",
        "l"
      ],
      [
        "p",
        "rom"
      ],
      [
        "cons",
        "id"
      ],
      [
        "af",
        "t"
      ],
      [
        "e",
        "ach"
      ],
      [
        "rece",
        "ived"
      ],
      [
        "ur",
        "ch"
      ],
      [
        "Octo",
        "ber"
      ],
      [
        "ri",
        "st"
      ],
      [
        "w",
        "ill"
      ],
      [
        "im",
        "e"
      ],
      [
        "ain",
        "ed"
      ],
      [
        "i",
        "um"
      ],
      [
        "P",
        "r"
      ],
      [
        "W",
        "est"
      ],
      [
        "pl",
        "ace"
      ],
      [
        "il",
        "ity"
      ],
      [
        "ver",
        "y"
      ],
      [
        "y",
        "s"
      ],
      [
        "g",
        "overn"
      ],
      [
        "a",
        "x"
      ],
      [
        "s",
        "ol"
      ],
      [
        "ther",
        "n"
      ],
      [
        "li",
        "am"
      ],
      [
        "f",
        "ive"
      ],
      [
        "l",
        "ing"
      ],
      [
        "j",
        "ust"
      ],
      [
        "r",
        "u"
      ],
      [
        "are",
        "a"
      ],
      [
        "st",
        "and"
      ],
      [
        "r",
        "ight"
      ],
      [
        "cent",
        "ury"
      ],
      [
        "ar",
        "s"
      ],
      [
        "ward",
        "s"
      ],
      [
        "ap",
        "pro"
      ],
      [
        "The",
        "y"
      ],
      [
        "de",
        "f"
      ],
      [
        "part",
        "ic"
      ],
      [
        "m",
        "atch"
      ],
      [
        "ate",
        "ly"
      ],
      [
        "re",
        "port"
      ],
      [
        "c",
        "ity"
      ],
      [
        "Nor",
        "th"
      ],
      [
        "B",
        "y"
      ],
      [
        "Y",
        "ork"
      ],
      [
        "ro",
        "te"
      ],
      [
        "p",
        "le"
      ],
      [
        "publ",
        "ic"
      ],
      [
        "wor",
        "ld"
      ],
      [
        "J",
        "une"
      ],
      [
        "cont",
        "ro"
      ],
      [
        "bo",
        "ok"
      ],
      [
        "g",
        "iv"
      ],
      [
        "t",
        "le"
      ],
      [
        "to",
        "p"
      ],
      [
        "sm",
        "all"
      ],
      [
        "ma",
        "jor"
      ],
      [
        "k",
        "ed"
      ],
      [
        "cord",
        "ing"
      ],
      [
        "K",
        "ing"
      ],
      [
        "j",
        "o"
      ],
      [
        "gr",
        "ound"
      ],
      [
        "Ju",
        "ly"
      ],
      [
        "f",
        "ield"
      ],
      [
        "in",
        "a"
      ],
      [
        "No",
        "ve"
      ],
      [
        "l",
        "ast"
      ],
      [
        "C",
        "an"
      ],
      [
        "Nove",
        "mber"
      ],
      [
        "play",
        "ed"
      ],
      [
        "or",
        "gan"
      ],
      [
        "wh",
        "at"
      ],
      [
        "g",
        "er"
      ],
      [
        "t",
        "urn"
      ],
      [
        "M",
        "an"
      ],
      [
        "or",
        "ed"
      ],
      [
        "at",
        "ter"
      ],
      [
        "2",
        "5"
      ],
      [
        "t",
        "it"
      ],
      [
        "e",
        "ast"
      ],
      [
        "p",
        "erson"
      ],
      [
        "s",
        "ince"
      ],
      [
        "tow",
        "n"
      ],
      [
        "sing",
        "le"
      ],
      [
        "l",
        "ish"
      ],
      [
        "ion",
        "al"
      ],
      [
        "A",
        "pr"
      ],
      [
        "se",
        "qu"
      ],
      [
        "Mar",
        "ch"
      ],
      [
        "Apr",
        "il"
      ],
      [
        "re",
        "ach"
      ],
      [
        "g",
        "un"
      ],
      [
        "F",
        "e"
      ],
      [
        "ap",
        "p"
      ],
      [
        "ag",
        "ed"
      ],
      [
        "ev",
        "en"
      ],
      [
        "A",
        "c"
      ],
      [
        "ar",
        "m"
      ],
      [
        "c",
        "are"
      ],
      [
        "u",
        "de"
      ],
      [
        "ur",
        "al"
      ],
      [
        "n",
        "ame"
      ],
      [
        "p",
        "ri"
      ],
      [
        "w",
        "on"
      ],
      [
        "st",
        "er"
      ],
      [
        "E",
        "u"
      ],
      [
        "G",
        "e"
      ],
      [
        "diff",
        "er"
      ],
      [
        "p",
        "ower"
      ],
      [
        "M",
        "c"
      ],
      [
        "C",
        "o"
      ],
      [
        "d",
        "om"
      ],
      [
        "h",
        "al"
      ],
      [
        "vi",
        "ous"
      ],
      [
        "0",
        "s"
      ],
      [
        "i",
        "ent"
      ],
      [
        "C",
        "oun"
      ],
      [
        "l",
        "it"
      ],
      [
        "b",
        "ro"
      ],
      [
        "id",
        "ge"
      ],
      [
        "ag",
        "ue"
      ],
      [
        "In",
        "di"
      ],
      [
        "fin",
        "al"
      ],
      [
        "in",
        "ed"
      ],
      [
        "te",
        "st"
      ],
      [
        "le",
        "ft"
      ],
      [
        "re",
        "f"
      ],
      [
        "du",
        "e"
      ],
      [
        "S",
        "outh"
      ],
      [
        "s",
        "outh"
      ],
      [
        "ev",
        "ent"
      ],
      [
        "D",
        "uring"
      ],
      [
        "ver",
        "sion"
      ],
      [
        "g",
        "re"
      ],
      [
        "u",
        "di"
      ],
      [
        "s",
        "chool"
      ],
      [
        "ag",
        "es"
      ],
      [
        "l",
        "ist"
      ],
      [
        "De",
        "ce"
      ],
      [
        "ic",
        "a"
      ],
      [
        "an",
        "k"
      ],
      [
        "Dece",
        "mber"
      ],
      [
        "th",
        "ird"
      ],
      [
        "Ger",
        "man"
      ],
      [
        "av",
        "y"
      ],
      [
        "in",
        "cre"
      ],
      [
        "il",
        "t"
      ],
      [
        "w",
        "ater"
      ],
      [
        "M",
        "e"
      ],
      [
        "af",
        "f"
      ],
      [
        "mon",
        "th"
      ],
      [
        "P",
        "h"
      ],
      [
        "E",
        "d"
      ],
      [
        "mo",
        "ved"
      ],
      [
        "is",
        "ion"
      ],
      [
        "S",
        "te"
      ],
      [
        "m",
        "uch"
      ],
      [
        "i",
        "er"
      ],
      [
        "ch",
        "ild"
      ],
      [
        "an",
        "other"
      ],
      [
        "ex",
        "pl"
      ],
      [
        "et",
        "s"
      ],
      [
        "nam",
        "ed"
      ],
      [
        "Jan",
        "uary"
      ],
      [
        "includ",
        "ed"
      ],
      [
        "19",
        "5"
      ],
      [
        "b",
        "ased"
      ],
      [
        "W",
        "e"
      ],
      [
        "is",
        "su"
      ],
      [
        "w",
        "rote"
      ],
      [
        "cl",
        "aim"
      ],
      [
        "c",
        "amp"
      ],
      [
        "govern",
        "ment"
      ],
      [
        "19",
        "3"
      ],
      [
        "ship",
        "s"
      ],
      [
        "A",
        "ll"
      ],
      [
        "k",
        "ill"
      ],
      [
        "al",
        "es"
      ],
      [
        "ian",
        "s"
      ],
      [
        "Wh",
        "en"
      ],
      [
        "on",
        "s"
      ],
      [
        "ap",
        "an"
      ],
      [
        "h",
        "ome"
      ],
      [
        "l",
        "s"
      ],
      [
        "ch",
        "an"
      ],
      [
        "sh",
        "ort"
      ],
      [
        "st",
        "ory"
      ],
      [
        "O",
        "r"
      ],
      [
        "P",
        "e"
      ],
      [
        "de",
        "ath"
      ],
      [
        "an",
        "e"
      ],
      [
        "ber",
        "t"
      ],
      [
        "u",
        "te"
      ],
      [
        "ord",
        "er"
      ],
      [
        "2",
        "4"
      ],
      [
        "ough",
        "t"
      ],
      [
        "at",
        "ure"
      ],
      [
        "J",
        "apan"
      ],
      [
        "ent",
        "ly"
      ],
      [
        "G",
        "u"
      ],
      [
        "ro",
        "y"
      ],
      [
        "n",
        "er"
      ],
      [
        "ex",
        "t"
      ],
      [
        "ic",
        "ally"
      ],
      [
        "od",
        "y"
      ],
      [
        "m",
        "ake"
      ],
      [
        "pres",
        "s"
      ],
      [
        "us",
        "ing"
      ],
      [
        "tem",
        "pt"
      ],
      [
        "fam",
        "ily"
      ],
      [
        "re",
        "view"
      ],
      [
        "P",
        "ro"
      ],
      [
        "it",
        "al"
      ],
      [
        "spec",
        "ies"
      ],
      [
        "pe",
        "ct"
      ],
      [
        "ut",
        "ion"
      ],
      [
        "os",
        "s"
      ],
      [
        "fl",
        "u"
      ],
      [
        "h",
        "and"
      ],
      [
        "h",
        "ouse"
      ],
      [
        "descri",
        "bed"
      ],
      [
        "em",
        "ent"
      ],
      [
        "pre",
        "vious"
      ],
      [
        "i",
        "k"
      ],
      [
        "f",
        "act"
      ],
      [
        "ren",
        "ch"
      ],
      [
        "..",
        "."
      ],
      [
        "ne",
        "y"
      ],
      [
        "d",
        "am"
      ],
      [
        "de",
        "st"
      ],
      [
        "row",
        "n"
      ],
      [
        "ard",
        "s"
      ],
      [
        "for",
        "man"
      ],
      [
        "l",
        "ate"
      ],
      [
        "Eu",
        "ro"
      ],
      [
        "be",
        "li"
      ],
      [
        "th",
        "ing"
      ],
      [
        "c",
        "as"
      ],
      [
        "re",
        "al"
      ],
      [
        "ur",
        "ther"
      ],
      [
        "bu",
        "ilt"
      ],
      [
        "gen",
        "er"
      ],
      [
        "il",
        "ar"
      ],
      [
        "form",
        "er"
      ],
      [
        "if",
        "ied"
      ],
      [
        "B",
        "o"
      ],
      [
        "be",
        "st"
      ],
      [
        "en",
        "e"
      ],
      [
        "at",
        "tempt"
      ],
      [
        "ou",
        "te"
      ],
      [
        "plac",
        "ed"
      ],
      [
        "t",
        "ak"
      ],
      [
        "g",
        "ames"
      ],
      [
        "l",
        "er"
      ],
      [
        "m",
        "p"
      ],
      [
        "tr",
        "act"
      ],
      [
        "pol",
        "it"
      ],
      [
        "n",
        "ess"
      ],
      [
        "he",
        "ld"
      ],
      [
        "comm",
        "and"
      ],
      [
        "st",
        "ud"
      ],
      [
        "col",
        "le"
      ],
      [
        "st",
        "ill"
      ],
      [
        "p",
        "ut"
      ],
      [
        "et",
        "y"
      ],
      [
        "origin",
        "al"
      ],
      [
        "st",
        "it"
      ],
      [
        "H",
        "is"
      ],
      [
        "th",
        "ose"
      ],
      [
        "ar",
        "ed"
      ],
      [
        "add",
        "ition"
      ],
      [
        "con",
        "stru"
      ],
      [
        "M",
        "on"
      ],
      [
        "gr",
        "am"
      ],
      [
        "br",
        "uary"
      ],
      [
        "Fe",
        "bruary"
      ],
      [
        "for",
        "d"
      ],
      [
        "l",
        "im"
      ],
      [
        "au",
        "gh"
      ],
      [
        "ne",
        "xt"
      ],
      [
        "v",
        "o"
      ],
      [
        "ef",
        "fect"
      ],
      [
        "an",
        "c"
      ],
      [
        "Ch",
        "rist"
      ],
      [
        "Th",
        "ere"
      ],
      [
        "f",
        "all"
      ],
      [
        "per",
        "forman"
      ],
      [
        "f",
        "el"
      ],
      [
        "m",
        "id"
      ],
      [
        "f",
        "ri"
      ],
      [
        "g",
        "y"
      ],
      [
        "d",
        "en"
      ],
      [
        "P",
        "ar"
      ],
      [
        "mem",
        "bers"
      ],
      [
        "r",
        "ican"
      ],
      [
        "s",
        "ent"
      ],
      [
        "2",
        "1"
      ],
      [
        "ction",
        "s"
      ],
      [
        "en",
        "ces"
      ],
      [
        "at",
        "or"
      ],
      [
        "N",
        "ational"
      ],
      [
        "m",
        "ar"
      ],
      [
        "1",
        "00"
      ],
      [
        "Euro",
        "pe"
      ],
      [
        "G",
        "en"
      ],
      [
        "ivers",
        "ity"
      ],
      [
        "day",
        "s"
      ],
      [
        "se",
        "e"
      ],
      [
        "peri",
        "od"
      ],
      [
        "ad",
        "v"
      ],
      [
        "with",
        "in"
      ],
      [
        "m",
        "it"
      ],
      [
        "at",
        "s"
      ],
      [
        "L",
        "i"
      ],
      [
        "F",
        "rench"
      ],
      [
        "h",
        "am"
      ],
      [
        "2",
        "2"
      ],
      [
        "rele",
        "ase"
      ],
      [
        "ro",
        "le"
      ],
      [
        "al",
        "though"
      ],
      [
        "mo",
        "ve"
      ],
      [
        "in",
        "it"
      ],
      [
        "th",
        "or"
      ],
      [
        "vide",
        "o"
      ],
      [
        "w",
        "ind"
      ],
      [
        "us",
        "h"
      ],
      [
        "s",
        "ay"
      ],
      [
        "hal",
        "f"
      ],
      [
        "201",
        "0"
      ],
      [
        "h",
        "ip"
      ],
      [
        "in",
        "es"
      ],
      [
        "b",
        "ur"
      ],
      [
        "est",
        "ab"
      ],
      [
        "c",
        "ame"
      ],
      [
        "z",
        "e"
      ],
      [
        "c",
        "or"
      ],
      [
        "Wil",
        "liam"
      ],
      [
        "rop",
        "ical"
      ],
      [
        "continu",
        "ed"
      ],
      [
        "S",
        "er"
      ],
      [
        "w",
        "om"
      ],
      [
        "r",
        "ound"
      ],
      [
        "2",
        "3"
      ],
      [
        "H",
        "er"
      ],
      [
        "l",
        "aw"
      ],
      [
        "p",
        "s"
      ],
      [
        "w",
        "in"
      ],
      [
        "An",
        "d"
      ],
      [
        "ain",
        "ing"
      ],
      [
        "cr",
        "aft"
      ],
      [
        "n",
        "a"
      ],
      [
        "u",
        "c"
      ],
      [
        "ain",
        "s"
      ],
      [
        "ri",
        "but"
      ],
      [
        "n",
        "ing"
      ],
      [
        "ul",
        "ation"
      ],
      [
        "h",
        "um"
      ],
      [
        "pos",
        "ed"
      ],
      [
        "s",
        "ou"
      ],
      [
        "us",
        "s"
      ],
      [
        "h",
        "owever"
      ],
      [
        "r",
        "is"
      ],
      [
        "end",
        "ing"
      ],
      [
        "on",
        "es"
      ],
      [
        "2",
        "7"
      ],
      [
        "it",
        "ary"
      ],
      [
        "ch",
        "ed"
      ],
      [
        "200",
        "8"
      ],
      [
        "inn",
        "ing"
      ],
      [
        "f",
        "ac"
      ],
      [
        "of",
        "ten"
      ],
      [
        "200",
        "9"
      ],
      [
        "y",
        "ou"
      ],
      [
        "Ge",
        "or"
      ],
      [
        "fe",
        "w"
      ],
      [
        "r",
        "al"
      ],
      [
        "im",
        "es"
      ],
      [
        "e",
        "qu"
      ],
      [
        "ist",
        "er"
      ],
      [
        "amp",
        "ion"
      ],
      [
        "al",
        "i"
      ],
      [
        "t",
        "ake"
      ],
      [
        "r",
        "ad"
      ],
      [
        "st",
        "ri"
      ],
      [
        "m",
        "ag"
      ],
      [
        "fri",
        "end"
      ],
      [
        "2",
        "8"
      ],
      [
        "loc",
        "al"
      ],
      [
        "play",
        "er"
      ],
      [
        "sim",
        "ilar"
      ],
      [
        "201",
        "1"
      ],
      [
        "s",
        "en"
      ],
      [
        "F",
        "ran"
      ],
      [
        "am",
        "ong"
      ],
      [
        "E",
        "ar"
      ],
      [
        "A",
        "ir"
      ],
      [
        "produ",
        "ction"
      ],
      [
        "be",
        "g"
      ],
      [
        "M",
        "ich"
      ],
      [
        "p",
        "ite"
      ],
      [
        "for",
        "ce"
      ],
      [
        "D",
        "es"
      ],
      [
        "w",
        "ent"
      ],
      [
        "differ",
        "ent"
      ],
      [
        "w",
        "ood"
      ],
      [
        "i",
        "or"
      ],
      [
        "i",
        "x"
      ],
      [
        "In",
        "ter"
      ],
      [
        "B",
        "ar"
      ],
      [
        "ch",
        "ang"
      ],
      [
        "pos",
        "si"
      ],
      [
        "mis",
        "sion"
      ],
      [
        "on",
        "y"
      ],
      [
        "Eng",
        "land"
      ],
      [
        "2",
        "6"
      ],
      [
        "o",
        "ve"
      ],
      [
        "Ch",
        "ar"
      ],
      [
        "at",
        "ic"
      ],
      [
        "stor",
        "m"
      ],
      [
        "4",
        "0"
      ],
      [
        "er",
        "y"
      ],
      [
        "f",
        "urther"
      ],
      [
        "str",
        "ong"
      ],
      [
        "O",
        "ne"
      ],
      [
        "wee",
        "k"
      ],
      [
        "n",
        "ight"
      ],
      [
        "consid",
        "ered"
      ],
      [
        "comp",
        "any"
      ],
      [
        "le",
        "vel"
      ],
      [
        "M",
        "us"
      ],
      [
        "st",
        "y"
      ],
      [
        "ser",
        "ved"
      ],
      [
        "D",
        "av"
      ],
      [
        "id",
        "es"
      ],
      [
        "200",
        "7"
      ],
      [
        "po",
        "st"
      ],
      [
        "id",
        "ed"
      ],
      [
        "ic",
        "es"
      ],
      [
        "care",
        "er"
      ],
      [
        "a",
        "ver"
      ],
      [
        "H",
        "ar"
      ],
      [
        "f",
        "ire"
      ],
      [
        "pro",
        "vid"
      ],
      [
        "h",
        "aving"
      ],
      [
        "C",
        "ity"
      ],
      [
        "ive",
        "ly"
      ],
      [
        "E",
        "ast"
      ],
      [
        "g",
        "ed"
      ],
      [
        "for",
        "t"
      ],
      [
        "P",
        "ark"
      ],
      [
        "act",
        "ion"
      ],
      [
        "ex",
        "p"
      ],
      [
        "comm",
        "un"
      ],
      [
        "tr",
        "ad"
      ],
      [
        "Eng",
        "lish"
      ],
      [
        "te",
        "le"
      ],
      [
        "u",
        "ck"
      ],
      [
        "b",
        "as"
      ],
      [
        "f",
        "ron"
      ],
      [
        "ever",
        "y"
      ],
      [
        "ent",
        "er"
      ],
      [
        "cl",
        "ub"
      ],
      [
        "with",
        "out"
      ],
      [
        "hist",
        "ory"
      ],
      [
        "Al",
        "though"
      ],
      [
        "re",
        "fer"
      ],
      [
        "h",
        "old"
      ],
      [
        "iv",
        "es"
      ],
      [
        "st",
        "udi"
      ],
      [
        "writ",
        "ten"
      ],
      [
        "w",
        "ide"
      ],
      [
        "201",
        "2"
      ],
      [
        "be",
        "come"
      ],
      [
        "Sc",
        "ot"
      ],
      [
        "land",
        "s"
      ],
      [
        "ste",
        "ad"
      ],
      [
        "op",
        "s"
      ],
      [
        "bo",
        "ard"
      ],
      [
        "F",
        "r"
      ],
      [
        "res",
        "pon"
      ],
      [
        "L",
        "ond"
      ],
      [
        "in",
        "flu"
      ],
      [
        "in",
        "k"
      ],
      [
        "re",
        "et"
      ],
      [
        "Lond",
        "on"
      ],
      [
        "grap",
        "h"
      ],
      [
        "s",
        "ound"
      ],
      [
        "An",
        "g"
      ],
      [
        "f",
        "oot"
      ],
      [
        "gg",
        "est"
      ],
      [
        "W",
        "ith"
      ],
      [
        "in",
        "vol"
      ],
      [
        "R",
        "iver"
      ],
      [
        "su",
        "ggest"
      ],
      [
        "B",
        "att"
      ],
      [
        "un",
        "g"
      ],
      [
        "2",
        "9"
      ],
      [
        "19",
        "0"
      ],
      [
        "S",
        "o"
      ],
      [
        "giv",
        "en"
      ],
      [
        "ann",
        "oun"
      ],
      [
        "ing",
        "ton"
      ],
      [
        "qu",
        "e"
      ],
      [
        "pr",
        "of"
      ],
      [
        "di",
        "vid"
      ],
      [
        "t",
        "ro"
      ],
      [
        "oun",
        "g"
      ],
      [
        "E",
        "x"
      ],
      [
        "b",
        "us"
      ],
      [
        "is",
        "s"
      ],
      [
        "m",
        "and"
      ],
      [
        "w",
        "ant"
      ],
      [
        "ke",
        "y"
      ],
      [
        "re",
        "en"
      ],
      [
        "M",
        "o"
      ],
      [
        "chan",
        "ge"
      ],
      [
        "build",
        "ing"
      ],
      [
        "com",
        "b"
      ],
      [
        "Can",
        "ad"
      ],
      [
        "H",
        "igh"
      ],
      [
        "im",
        "p"
      ],
      [
        "f",
        "ather"
      ],
      [
        "g",
        "ave"
      ],
      [
        "success",
        "ful"
      ],
      [
        "T",
        "e"
      ],
      [
        "an",
        "im"
      ],
      [
        "com",
        "mon"
      ],
      [
        "publ",
        "ished"
      ],
      [
        "N",
        "e"
      ],
      [
        "Un",
        "iversity"
      ],
      [
        "T",
        "o"
      ],
      [
        "cl",
        "ose"
      ],
      [
        "im",
        "port"
      ],
      [
        "st",
        "ated"
      ],
      [
        "se",
        "ven"
      ],
      [
        "c",
        "op"
      ],
      [
        "S",
        "y"
      ],
      [
        "ren",
        "t"
      ],
      [
        "su",
        "re"
      ],
      [
        "ne",
        "ver"
      ],
      [
        "Wh",
        "ile"
      ],
      [
        "g",
        "ood"
      ],
      [
        "d",
        "ri"
      ],
      [
        "ail",
        "ed"
      ],
      [
        "return",
        "ed"
      ],
      [
        "a",
        "i"
      ],
      [
        "b",
        "or"
      ],
      [
        "produ",
        "ced"
      ],
      [
        "to",
        "tal"
      ],
      [
        "u",
        "g"
      ],
      [
        "P",
        "ol"
      ],
      [
        "be",
        "h"
      ],
      [
        "im",
        "ent"
      ],
      [
        "a",
        "e"
      ],
      [
        "coun",
        "try"
      ],
      [
        "f",
        "ace"
      ],
      [
        "s",
        "w"
      ],
      [
        "om",
        "in"
      ],
      [
        "pro",
        "te"
      ],
      [
        "F",
        "l"
      ],
      [
        "ev",
        "ed"
      ],
      [
        "h",
        "our"
      ],
      [
        "f",
        "r"
      ],
      [
        "fin",
        "d"
      ],
      [
        "aw",
        "ay"
      ],
      [
        "pop",
        "ular"
      ],
      [
        "qu",
        "ad"
      ],
      [
        "de",
        "l"
      ],
      [
        "s",
        "it"
      ],
      [
        "to",
        "ur"
      ],
      [
        "report",
        "ed"
      ],
      [
        "are",
        "n"
      ],
      [
        "D",
        "iv"
      ],
      [
        "om",
        "et"
      ],
      [
        "ab",
        "ly"
      ],
      [
        "200",
        "6"
      ],
      [
        "lo",
        "st"
      ],
      [
        "pro",
        "gram"
      ],
      [
        "comp",
        "os"
      ],
      [
        "g",
        "reat"
      ],
      [
        "a",
        "ign"
      ],
      [
        "partic",
        "ular"
      ],
      [
        "way",
        "s"
      ],
      [
        "dr",
        "aw"
      ],
      [
        "ve",
        "st"
      ],
      [
        "m",
        "aking"
      ],
      [
        "C",
        "or"
      ],
      [
        "incl",
        "ude"
      ],
      [
        "au",
        "thor"
      ],
      [
        "Ac",
        "cording"
      ],
      [
        "de",
        "cl"
      ],
      [
        "inter",
        "est"
      ],
      [
        "record",
        "ed"
      ],
      [
        "ch",
        "n"
      ],
      [
        "h",
        "ow"
      ],
      [
        "stru",
        "ct"
      ],
      [
        "in",
        "du"
      ],
      [
        "ver",
        "s"
      ],
      [
        "D",
        "r"
      ],
      [
        "for",
        "ces"
      ],
      [
        "arri",
        "ed"
      ],
      [
        "ne",
        "ed"
      ],
      [
        "v",
        "ict"
      ],
      [
        "dire",
        "ct"
      ],
      [
        "f",
        "le"
      ],
      [
        "ur",
        "rican"
      ],
      [
        "pl",
        "an"
      ],
      [
        "olog",
        "y"
      ],
      [
        "b",
        "ody"
      ],
      [
        "ition",
        "s"
      ],
      [
        "b",
        "ar"
      ],
      [
        "s",
        "ite"
      ],
      [
        "a",
        "ur"
      ],
      [
        "sh",
        "ould"
      ],
      [
        "am",
        "a"
      ],
      [
        "pl",
        "oy"
      ],
      [
        "serv",
        "ice"
      ],
      [
        "qu",
        "ar"
      ],
      [
        "performan",
        "ce"
      ],
      [
        "su",
        "ff"
      ],
      [
        "di",
        "ed"
      ],
      [
        "mo",
        "der"
      ],
      [
        "Ph",
        "il"
      ],
      [
        "te",
        "en"
      ],
      [
        "um",
        "ent"
      ],
      [
        "tim",
        "es"
      ],
      [
        "Th",
        "ese"
      ],
      [
        "s",
        "oci"
      ],
      [
        "cap",
        "t"
      ],
      [
        "o",
        "x"
      ],
      [
        "com",
        "ing"
      ],
      [
        "gr",
        "ad"
      ],
      [
        "air",
        "craft"
      ],
      [
        "R",
        "oy"
      ],
      [
        "him",
        "self"
      ],
      [
        "201",
        "3"
      ],
      [
        "p",
        "en"
      ],
      [
        "mil",
        "itary"
      ],
      [
        "ro",
        "ck"
      ],
      [
        "int",
        "ro"
      ],
      [
        "Austral",
        "ia"
      ],
      [
        "dep",
        "end"
      ],
      [
        "f",
        "lo"
      ],
      [
        "batt",
        "le"
      ],
      [
        "n",
        "ed"
      ],
      [
        "s",
        "um"
      ],
      [
        "J",
        "ack"
      ],
      [
        "te",
        "ll"
      ],
      [
        "re",
        "w"
      ],
      [
        "ag",
        "re"
      ],
      [
        "n",
        "et"
      ],
      [
        "ro",
        "om"
      ],
      [
        "f",
        "an"
      ],
      [
        "song",
        "s"
      ],
      [
        "f",
        "un"
      ],
      [
        "P",
        "res"
      ],
      [
        "mem",
        "ber"
      ],
      [
        "p",
        "ur"
      ],
      [
        "A",
        "m"
      ],
      [
        "in",
        "ess"
      ],
      [
        "crit",
        "ic"
      ],
      [
        "develop",
        "ment"
      ],
      [
        "an",
        "a"
      ],
      [
        "ele",
        "ct"
      ],
      [
        "Gen",
        "eral"
      ],
      [
        "St",
        "ate"
      ],
      [
        "R",
        "ep"
      ],
      [
        "se",
        "arch"
      ],
      [
        "x",
        "im"
      ],
      [
        "a",
        "ul"
      ],
      [
        "fron",
        "t"
      ],
      [
        "re",
        "present"
      ],
      [
        "al",
        "th"
      ],
      [
        "ast",
        "er"
      ],
      [
        "M",
        "in"
      ],
      [
        "en",
        "ed"
      ],
      [
        "lo",
        "ok"
      ],
      [
        "18",
        "9"
      ],
      [
        "B",
        "C"
      ],
      [
        "it",
        "ive"
      ],
      [
        "it",
        "ch"
      ],
      [
        "a",
        "el"
      ],
      [
        "J",
        "ames"
      ],
      [
        "hist",
        "or"
      ],
      [
        "develop",
        "ed"
      ],
      [
        "ak",
        "es"
      ],
      [
        "ac",
        "y"
      ],
      [
        "g",
        "es"
      ],
      [
        "ist",
        "r"
      ],
      [
        "med",
        "i"
      ],
      [
        "contro",
        "l"
      ],
      [
        "intro",
        "du"
      ],
      [
        "dest",
        "roy"
      ],
      [
        "child",
        "ren"
      ],
      [
        "g",
        "l"
      ],
      [
        "S",
        "w"
      ],
      [
        "s",
        "l"
      ],
      [
        "remain",
        "ed"
      ],
      [
        "n",
        "al"
      ],
      [
        "ch",
        "art"
      ],
      [
        "st",
        "ar"
      ],
      [
        "R",
        "om"
      ],
      [
        "charac",
        "ters"
      ],
      [
        "Ar",
        "my"
      ],
      [
        "ran",
        "ge"
      ],
      [
        "f",
        "av"
      ],
      [
        "pt",
        "ion"
      ],
      [
        "v",
        "ir"
      ],
      [
        "tit",
        "le"
      ],
      [
        "month",
        "s"
      ],
      [
        "6",
        "0"
      ],
      [
        "cle",
        "ar"
      ],
      [
        "S",
        "m"
      ],
      [
        "ith",
        "er"
      ],
      [
        "m",
        "m"
      ],
      [
        "camp",
        "aign"
      ],
      [
        "oc",
        "cur"
      ],
      [
        "u",
        "es"
      ],
      [
        "urrican",
        "e"
      ],
      [
        "Le",
        "ague"
      ],
      [
        "e",
        "y"
      ],
      [
        "is",
        "ing"
      ],
      [
        "c",
        "ult"
      ],
      [
        "tak",
        "en"
      ],
      [
        "en",
        "se"
      ],
      [
        "ge",
        "ther"
      ],
      [
        "e",
        "ight"
      ],
      [
        "r",
        "ap"
      ],
      [
        "v",
        "an"
      ],
      [
        "re",
        "am"
      ],
      [
        "comp",
        "et"
      ],
      [
        "fel",
        "t"
      ],
      [
        "b",
        "an"
      ],
      [
        "c",
        "ir"
      ],
      [
        "t",
        "ropical"
      ],
      [
        "ab",
        "ility"
      ],
      [
        "ac",
        "ross"
      ],
      [
        "sign",
        "ific"
      ],
      [
        "writ",
        "ing"
      ],
      [
        "se",
        "en"
      ],
      [
        "pro",
        "ject"
      ],
      [
        "dis",
        "c"
      ],
      [
        "om",
        "b"
      ],
      [
        "er",
        "ing"
      ],
      [
        "S",
        "u"
      ],
      [
        "ot",
        "s"
      ],
      [
        "st",
        "ation"
      ],
      [
        "br",
        "idge"
      ],
      [
        "g",
        "est"
      ],
      [
        "to",
        "o"
      ],
      [
        "C",
        "ap"
      ],
      [
        "appear",
        "ed"
      ],
      [
        "announ",
        "ced"
      ],
      [
        "Amer",
        "ica"
      ],
      [
        "pr",
        "a"
      ],
      [
        "not",
        "ed"
      ],
      [
        "pe",
        "c"
      ],
      [
        "t",
        "ar"
      ],
      [
        "Div",
        "ision"
      ],
      [
        "Geor",
        "ge"
      ],
      [
        "al",
        "ter"
      ],
      [
        "reach",
        "ed"
      ],
      [
        "T",
        "w"
      ],
      [
        "ap",
        "point"
      ],
      [
        "ex",
        "peri"
      ],
      [
        "c",
        "il"
      ],
      [
        "cre",
        "ated"
      ],
      [
        "Coun",
        "ty"
      ],
      [
        "act",
        "iv"
      ],
      [
        "are",
        "as"
      ],
      [
        "H",
        "en"
      ],
      [
        "tele",
        "vision"
      ],
      [
        "work",
        "s"
      ],
      [
        "us",
        "es"
      ],
      [
        "Japan",
        "ese"
      ],
      [
        "200",
        "5"
      ],
      [
        "f",
        "ight"
      ],
      [
        "g",
        "in"
      ],
      [
        "Ro",
        "ad"
      ],
      [
        "il",
        "le"
      ],
      [
        "s",
        "aw"
      ],
      [
        "per",
        "formed"
      ],
      [
        "pr",
        "im"
      ],
      [
        "co",
        "st"
      ],
      [
        "var",
        "ious"
      ],
      [
        "polit",
        "ical"
      ],
      [
        "le",
        "ct"
      ],
      [
        "comple",
        "te"
      ],
      [
        "follow",
        "ed"
      ],
      [
        "St",
        "reet"
      ],
      [
        "bre",
        "ak"
      ],
      [
        "ful",
        "l"
      ],
      [
        "in",
        "v"
      ],
      [
        "h",
        "or"
      ],
      [
        "it",
        "ing"
      ],
      [
        "P",
        "er"
      ],
      [
        "play",
        "ers"
      ],
      [
        "r",
        "ace"
      ],
      [
        "tr",
        "ave"
      ],
      [
        "sty",
        "le"
      ],
      [
        "al",
        "ity"
      ],
      [
        "201",
        "4"
      ],
      [
        "cover",
        "ed"
      ],
      [
        "ard",
        "ed"
      ],
      [
        "ag",
        "o"
      ],
      [
        "M",
        "a"
      ],
      [
        "pro",
        "cess"
      ],
      [
        "bl",
        "ack"
      ],
      [
        "ab",
        "or"
      ],
      [
        "m",
        "ph"
      ],
      [
        "mi",
        "x"
      ],
      [
        "m",
        "ot"
      ],
      [
        "m",
        "b"
      ],
      [
        "ant",
        "ic"
      ],
      [
        "kill",
        "ed"
      ],
      [
        "point",
        "s"
      ],
      [
        "hel",
        "p"
      ],
      [
        "ie",
        "f"
      ],
      [
        "w",
        "all"
      ],
      [
        "M",
        "ad"
      ],
      [
        "an",
        "ces"
      ],
      [
        "i",
        "ble"
      ],
      [
        "l",
        "ished"
      ],
      [
        "through",
        "out"
      ],
      [
        "h",
        "it"
      ],
      [
        "li",
        "ve"
      ],
      [
        "s",
        "ess"
      ],
      [
        "lin",
        "es"
      ],
      [
        "to",
        "gether"
      ],
      [
        "de",
        "but"
      ],
      [
        "be",
        "t"
      ],
      [
        "form",
        "ation"
      ],
      [
        "te",
        "chn"
      ],
      [
        "lit",
        "tle"
      ],
      [
        "se",
        "x"
      ],
      [
        "h",
        "ar"
      ],
      [
        "st",
        "at"
      ],
      [
        "estab",
        "lished"
      ],
      [
        "signific",
        "ant"
      ],
      [
        "f",
        "em"
      ],
      [
        "n",
        "on"
      ],
      [
        "me",
        "et"
      ],
      [
        "b",
        "road"
      ],
      [
        "iz",
        "ation"
      ],
      [
        "co",
        "ast"
      ],
      [
        "Th",
        "om"
      ],
      [
        "though",
        "t"
      ],
      [
        "constru",
        "ction"
      ],
      [
        "ic",
        "ult"
      ],
      [
        "be",
        "l"
      ],
      [
        "o",
        "to"
      ],
      [
        "mil",
        "es"
      ],
      [
        "p",
        "air"
      ],
      [
        "ear",
        "li"
      ],
      [
        "do",
        "es"
      ],
      [
        "Re",
        "g"
      ],
      [
        "im",
        "pro"
      ],
      [
        "en",
        "ced"
      ],
      [
        "Dav",
        "id"
      ],
      [
        "av",
        "al"
      ],
      [
        "Mich",
        "ael"
      ],
      [
        "tr",
        "a"
      ],
      [
        "ent",
        "ire"
      ],
      [
        "Austral",
        "ian"
      ],
      [
        "b",
        "orn"
      ],
      [
        "r",
        "ain"
      ],
      [
        "st",
        "age"
      ],
      [
        "p",
        "ain"
      ],
      [
        "ac",
        "c"
      ],
      [
        "f",
        "ar"
      ],
      [
        "is",
        "sion"
      ],
      [
        "y",
        "oung"
      ],
      [
        "v",
        "oc"
      ],
      [
        "g",
        "ot"
      ],
      [
        "od",
        "es"
      ],
      [
        "rel",
        "ation"
      ],
      [
        "P",
        "art"
      ],
      [
        "spec",
        "ial"
      ],
      [
        "R",
        "ich"
      ],
      [
        "E",
        "l"
      ],
      [
        "r",
        "oute"
      ],
      [
        "con",
        "om"
      ],
      [
        "wom",
        "en"
      ],
      [
        "dec",
        "ided"
      ],
      [
        "at",
        "ors"
      ],
      [
        "con",
        "ne"
      ],
      [
        "B",
        "ill"
      ],
      [
        "Y",
        "ou"
      ],
      [
        "ca",
        "used"
      ],
      [
        "start",
        "ed"
      ],
      [
        "c",
        "ase"
      ],
      [
        "iv",
        "il"
      ],
      [
        "play",
        "ing"
      ],
      [
        "gen",
        "eral"
      ],
      [
        "feat",
        "ures"
      ],
      [
        "M",
        "ed"
      ],
      [
        "S",
        "an"
      ],
      [
        "g",
        "row"
      ],
      [
        "wh",
        "ite"
      ],
      [
        "event",
        "ually"
      ],
      [
        "sc",
        "ri"
      ],
      [
        "se",
        "ll"
      ],
      [
        "h",
        "o"
      ],
      [
        "on",
        "ce"
      ],
      [
        "H",
        "ouse"
      ],
      [
        "amp",
        "le"
      ],
      [
        "man",
        "ag"
      ],
      [
        "av",
        "es"
      ],
      [
        "te",
        "e"
      ],
      [
        "ist",
        "ed"
      ],
      [
        "cre",
        "w"
      ],
      [
        "ul",
        "l"
      ],
      [
        "s",
        "old"
      ],
      [
        "h",
        "ost"
      ],
      [
        "F",
        "in"
      ],
      [
        "fe",
        "et"
      ],
      [
        "Roy",
        "al"
      ],
      [
        "Q",
        "u"
      ],
      [
        "open",
        "ed"
      ],
      [
        "add",
        "ed"
      ],
      [
        "al",
        "d"
      ],
      [
        "st",
        "ant"
      ],
      [
        "moder",
        "n"
      ],
      [
        "loc",
        "ated"
      ],
      [
        "ter",
        "min"
      ],
      [
        "id",
        "ence"
      ],
      [
        "18",
        "8"
      ],
      [
        "H",
        "ist"
      ],
      [
        "p",
        "at"
      ],
      [
        "quad",
        "ron"
      ],
      [
        "b",
        "ase"
      ],
      [
        "ampion",
        "ship"
      ],
      [
        "i",
        "fe"
      ],
      [
        "ree",
        "k"
      ],
      [
        "S",
        "ome"
      ],
      [
        "in",
        "stead"
      ],
      [
        "r",
        "ing"
      ],
      [
        "It",
        "al"
      ],
      [
        "it",
        "ar"
      ],
      [
        "ens",
        "ive"
      ],
      [
        "var",
        "i"
      ],
      [
        "in",
        "j"
      ],
      [
        "import",
        "ant"
      ],
      [
        "pe",
        "ak"
      ],
      [
        "cl",
        "os"
      ],
      [
        "the",
        "ast"
      ],
      [
        "se",
        "ction"
      ],
      [
        "Mus",
        "ic"
      ],
      [
        "cre",
        "t"
      ],
      [
        "ut",
        "es"
      ],
      [
        "Bl",
        "ack"
      ],
      [
        "w",
        "ord"
      ],
      [
        "D",
        "on"
      ],
      [
        "comple",
        "ted"
      ],
      [
        "possi",
        "ble"
      ],
      [
        "h",
        "on"
      ],
      [
        "oc",
        "ial"
      ],
      [
        "Com",
        "p"
      ],
      [
        "m",
        "oun"
      ],
      [
        "end",
        "s"
      ],
      [
        "work",
        "ed"
      ],
      [
        "o",
        "v"
      ],
      [
        "c",
        "ross"
      ],
      [
        "in",
        "ation"
      ],
      [
        "c",
        "ause"
      ],
      [
        "M",
        "y"
      ],
      [
        "cur",
        "rent"
      ],
      [
        "oth",
        "ers"
      ],
      [
        "pop",
        "ulation"
      ],
      [
        "one",
        "y"
      ],
      [
        "f",
        "ree"
      ],
      [
        "200",
        "4"
      ],
      [
        "m",
        "ater"
      ],
      [
        "au",
        "di"
      ],
      [
        "y",
        "ing"
      ],
      [
        "pr",
        "ed"
      ],
      [
        "M",
        "al"
      ],
      [
        "B",
        "el"
      ],
      [
        "f",
        "ig"
      ],
      [
        "ll",
        "ed"
      ],
      [
        "lead",
        "ing"
      ],
      [
        "u",
        "el"
      ],
      [
        "S",
        "ch"
      ],
      [
        "p",
        "ie"
      ],
      [
        "ot",
        "ed"
      ],
      [
        "ra",
        "ther"
      ],
      [
        "ty",
        "p"
      ],
      [
        "P",
        "o"
      ],
      [
        "d",
        "on"
      ],
      [
        "qu",
        "est"
      ],
      [
        "L",
        "u"
      ],
      [
        "l",
        "oss"
      ],
      [
        "gun",
        "s"
      ],
      [
        "beh",
        "ind"
      ],
      [
        "ch",
        "urch"
      ],
      [
        "t",
        "re"
      ],
      [
        "B",
        "er"
      ],
      [
        "Ro",
        "bert"
      ],
      [
        "up",
        "on"
      ],
      [
        "ce",
        "ed"
      ],
      [
        "pr",
        "act"
      ],
      [
        "for",
        "ced"
      ],
      [
        "H",
        "ol"
      ],
      [
        "3",
        "1"
      ],
      [
        "d",
        "le"
      ],
      [
        "com",
        "ment"
      ],
      [
        "l",
        "ack"
      ],
      [
        "er",
        "a"
      ],
      [
        "mo",
        "ther"
      ],
      [
        "in",
        "vest"
      ],
      [
        "Fr",
        "ance"
      ],
      [
        "as",
        "k"
      ],
      [
        "f",
        "if"
      ],
      [
        "201",
        "5"
      ],
      [
        "in",
        "ch"
      ],
      [
        "he",
        "avy"
      ],
      [
        "C",
        "ent"
      ],
      [
        "li",
        "e"
      ],
      [
        "v",
        "ill"
      ],
      [
        "e",
        "cut"
      ],
      [
        "part",
        "y"
      ],
      [
        "ay",
        "s"
      ],
      [
        "res",
        "pect"
      ],
      [
        "A",
        "ct"
      ],
      [
        "S",
        "chool"
      ],
      [
        "sub",
        "sequ"
      ],
      [
        "no",
        "vel"
      ],
      [
        "m",
        "ing"
      ],
      [
        "pro",
        "ble"
      ],
      [
        "kn",
        "ow"
      ],
      [
        "R",
        "uss"
      ],
      [
        "diff",
        "icult"
      ],
      [
        "ac",
        "cept"
      ],
      [
        "re",
        "ve"
      ],
      [
        "W",
        "ash"
      ],
      [
        "A",
        "b"
      ],
      [
        "Ang",
        "el"
      ],
      [
        "work",
        "ing"
      ],
      [
        "se",
        "par"
      ],
      [
        "hum",
        "an"
      ],
      [
        "V",
        "i"
      ],
      [
        "ass",
        "oci"
      ],
      [
        "jo",
        "ined"
      ],
      [
        "wee",
        "ks"
      ],
      [
        "ter",
        "m"
      ],
      [
        "Hen",
        "ry"
      ],
      [
        "y",
        "n"
      ],
      [
        "sc",
        "ene"
      ],
      [
        "7",
        "0"
      ],
      [
        "at",
        "a"
      ],
      [
        "origin",
        "ally"
      ],
      [
        "av",
        "ail"
      ],
      [
        "h",
        "ard"
      ],
      [
        "col",
        "l"
      ],
      [
        "og",
        "n"
      ],
      [
        "sc",
        "ored"
      ],
      [
        "al",
        "most"
      ],
      [
        "or",
        "ies"
      ],
      [
        "pres",
        "sion"
      ],
      [
        "as",
        "ing"
      ],
      [
        "N",
        "A"
      ],
      [
        "dam",
        "age"
      ],
      [
        "allow",
        "ed"
      ],
      [
        "H",
        "am"
      ],
      [
        "t",
        "ies"
      ],
      [
        "Batt",
        "le"
      ],
      [
        "ang",
        "u"
      ],
      [
        "in",
        "st"
      ],
      [
        "m",
        "ass"
      ],
      [
        "A",
        "le"
      ],
      [
        "four",
        "th"
      ],
      [
        "sp",
        "ir"
      ],
      [
        "E",
        "m"
      ],
      [
        "B",
        "est"
      ],
      [
        "appro",
        "ach"
      ],
      [
        "read",
        "y"
      ],
      [
        "ign",
        "ed"
      ],
      [
        "provid",
        "ed"
      ],
      [
        "eng",
        "ine"
      ],
      [
        "go",
        "al"
      ],
      [
        "C",
        "r"
      ],
      [
        "iv",
        "al"
      ],
      [
        "op",
        "e"
      ],
      [
        "i",
        "als"
      ],
      [
        "3",
        "5"
      ],
      [
        "claim",
        "ed"
      ],
      [
        "am",
        "ent"
      ],
      [
        "8",
        "0"
      ],
      [
        "in",
        "o"
      ],
      [
        "d",
        "rop"
      ],
      [
        "F",
        "ir"
      ],
      [
        "want",
        "ed"
      ],
      [
        "low",
        "er"
      ],
      [
        "reg",
        "ular"
      ],
      [
        "V",
        "ir"
      ],
      [
        "em",
        "ploy"
      ],
      [
        "P",
        "aul"
      ],
      [
        "c",
        "up"
      ],
      [
        "P",
        "ort"
      ],
      [
        "am",
        "b"
      ],
      [
        "br",
        "ought"
      ],
      [
        "R",
        "ed"
      ],
      [
        "trad",
        "ition"
      ],
      [
        "n",
        "at"
      ],
      [
        "in",
        "divid"
      ],
      [
        "Q",
        "ue"
      ],
      [
        "feat",
        "ured"
      ],
      [
        "5",
        "00"
      ],
      [
        "Pres",
        "ident"
      ],
      [
        "C",
        "our"
      ],
      [
        "le",
        "ast"
      ],
      [
        "ce",
        "ll"
      ],
      [
        "w",
        "ife"
      ],
      [
        "la",
        "un"
      ],
      [
        "g",
        "ar"
      ],
      [
        "e",
        "conom"
      ],
      [
        "he",
        "st"
      ],
      [
        "aver",
        "age"
      ],
      [
        "M",
        "il"
      ],
      [
        "pass",
        "ed"
      ],
      [
        "so",
        "on"
      ],
      [
        "a",
        "ut"
      ],
      [
        "bus",
        "iness"
      ],
      [
        "to",
        "wards"
      ],
      [
        "su",
        "per"
      ],
      [
        "T",
        "V"
      ],
      [
        "reg",
        "ion"
      ],
      [
        "run",
        "s"
      ],
      [
        "cr",
        "ed"
      ],
      [
        "Wash",
        "ington"
      ],
      [
        "rec",
        "ogn"
      ],
      [
        "ap",
        "s"
      ],
      [
        "b",
        "al"
      ],
      [
        "tem",
        "por"
      ],
      [
        "crit",
        "ics"
      ],
      [
        "west",
        "ern"
      ],
      [
        "Pl",
        "ay"
      ],
      [
        "az",
        "ine"
      ],
      [
        "qu",
        "ick"
      ],
      [
        "e",
        "ither"
      ],
      [
        "off",
        "ice"
      ],
      [
        "est",
        "im"
      ],
      [
        "ct",
        "s"
      ],
      [
        "s",
        "our"
      ],
      [
        "18",
        "6"
      ],
      [
        "con",
        "tract"
      ],
      [
        "prof",
        "ess"
      ],
      [
        "red",
        "u"
      ],
      [
        "l",
        "eng"
      ],
      [
        "pl",
        "ann"
      ],
      [
        "M",
        "or"
      ],
      [
        "de",
        "fe"
      ],
      [
        "cour",
        "t"
      ],
      [
        "form",
        "s"
      ],
      [
        "ex",
        "ample"
      ],
      [
        "em",
        "y"
      ],
      [
        "coun",
        "ter"
      ],
      [
        "mer",
        "c"
      ],
      [
        "r",
        "ail"
      ],
      [
        "r",
        "id"
      ],
      [
        "n",
        "omin"
      ],
      [
        "O",
        "ther"
      ],
      [
        "M",
        "ac"
      ],
      [
        "ul",
        "a"
      ],
      [
        "tro",
        "ops"
      ],
      [
        "f",
        "oc"
      ],
      [
        "ic",
        "ated"
      ],
      [
        "comp",
        "an"
      ],
      [
        "fin",
        "ished"
      ],
      [
        "R",
        "es"
      ],
      [
        "c",
        "ing"
      ],
      [
        "n",
        "ia"
      ],
      [
        "h",
        "om"
      ],
      [
        "ar",
        "my"
      ],
      [
        "d",
        "ou"
      ],
      [
        "id",
        "s"
      ],
      [
        "J",
        "e"
      ],
      [
        "Des",
        "pite"
      ],
      [
        "con",
        "cl"
      ],
      [
        "200",
        "3"
      ],
      [
        "F",
        "ollow"
      ],
      [
        "r",
        "ul"
      ],
      [
        "fe",
        "el"
      ],
      [
        "ad",
        "es"
      ],
      [
        "gener",
        "ally"
      ],
      [
        "sh",
        "ot"
      ],
      [
        "m",
        "ult"
      ],
      [
        "as",
        "y"
      ],
      [
        "D",
        "an"
      ],
      [
        "pro",
        "per"
      ],
      [
        "G",
        "ame"
      ],
      [
        "con",
        "du"
      ],
      [
        "cir",
        "c"
      ],
      [
        "b",
        "ill"
      ],
      [
        "G",
        "l"
      ],
      [
        "p",
        "ly"
      ],
      [
        "w",
        "he"
      ],
      [
        "de",
        "t"
      ],
      [
        "Col",
        "le"
      ],
      [
        "ap",
        "er"
      ],
      [
        "ev",
        "ents"
      ],
      [
        "ic",
        "o"
      ],
      [
        "leng",
        "th"
      ],
      [
        "beli",
        "eved"
      ],
      [
        "com",
        "pl"
      ],
      [
        "f",
        "ed"
      ],
      [
        "m",
        "un"
      ],
      [
        "C",
        "up"
      ],
      [
        "cer",
        "t"
      ],
      [
        "b",
        "es"
      ],
      [
        "f",
        "re"
      ],
      [
        "partic",
        "ip"
      ],
      [
        "Fir",
        "st"
      ],
      [
        "Follow",
        "ing"
      ],
      [
        "os",
        "p"
      ],
      [
        "ke",
        "ep"
      ],
      [
        "i",
        "us"
      ],
      [
        "part",
        "s"
      ],
      [
        "se",
        "a"
      ],
      [
        "al",
        "ed"
      ],
      [
        "m",
        "al"
      ],
      [
        "H",
        "ill"
      ],
      [
        "M",
        "ary"
      ],
      [
        "f",
        "und"
      ],
      [
        "ant",
        "i"
      ],
      [
        "St",
        "ar"
      ],
      [
        "sc",
        "en"
      ],
      [
        "n",
        "ine"
      ],
      [
        "vict",
        "ory"
      ],
      [
        "re",
        "placed"
      ],
      [
        "ent",
        "ion"
      ],
      [
        "b",
        "ound"
      ],
      [
        "n",
        "el"
      ],
      [
        "design",
        "ed"
      ],
      [
        "avail",
        "able"
      ],
      [
        "is",
        "land"
      ],
      [
        "ict",
        "ion"
      ],
      [
        "offic",
        "ial"
      ],
      [
        "D",
        "ep"
      ],
      [
        "con",
        "c"
      ],
      [
        "hour",
        "s"
      ],
      [
        "Europe",
        "an"
      ],
      [
        "invol",
        "ved"
      ],
      [
        "se",
        "le"
      ],
      [
        "p",
        "ing"
      ],
      [
        "pres",
        "ident"
      ],
      [
        "Tw",
        "o"
      ],
      [
        "open",
        "ing"
      ],
      [
        "ev",
        "ol"
      ],
      [
        "pr",
        "ison"
      ],
      [
        "L",
        "ou"
      ],
      [
        "it",
        "or"
      ],
      [
        "olog",
        "ical"
      ],
      [
        "st",
        "op"
      ],
      [
        "as",
        "ked"
      ],
      [
        "ent",
        "ial"
      ],
      [
        "cer",
        "tain"
      ],
      [
        "turn",
        "ed"
      ],
      [
        "t",
        "ic"
      ],
      [
        "com",
        "es"
      ],
      [
        "ex",
        "ecut"
      ],
      [
        "ex",
        "ist"
      ],
      [
        "t",
        "or"
      ],
      [
        "dire",
        "ctor"
      ],
      [
        "h",
        "ous"
      ],
      [
        "h",
        "ab"
      ],
      [
        "er",
        "ous"
      ],
      [
        "say",
        "ing"
      ],
      [
        "b",
        "ri"
      ],
      [
        "al",
        "k"
      ],
      [
        "S",
        "un"
      ],
      [
        "th",
        "reat"
      ],
      [
        "i",
        "ence"
      ],
      [
        "oun",
        "t"
      ],
      [
        "appear",
        "ance"
      ],
      [
        "port",
        "s"
      ],
      [
        "comm",
        "it"
      ],
      [
        "200",
        "0"
      ],
      [
        "4",
        "5"
      ],
      [
        "7",
        "5"
      ],
      [
        "ist",
        "ic"
      ],
      [
        "lo",
        "ve"
      ],
      [
        "ig",
        "hest"
      ],
      [
        "cy",
        "cl"
      ],
      [
        "st",
        "one"
      ],
      [
        "p",
        "ark"
      ],
      [
        "min",
        "utes"
      ],
      [
        "lar",
        "gest"
      ],
      [
        "writ",
        "er"
      ],
      [
        "Rom",
        "an"
      ],
      [
        "M",
        "er"
      ],
      [
        "w",
        "atch"
      ],
      [
        "high",
        "way"
      ],
      [
        "sou",
        "thern"
      ],
      [
        "R",
        "oute"
      ],
      [
        "te",
        "l"
      ],
      [
        "Scot",
        "t"
      ],
      [
        "t",
        "aking"
      ],
      [
        "sur",
        "vi"
      ],
      [
        "go",
        "ing"
      ],
      [
        "ubl",
        "ic"
      ],
      [
        "h",
        "ighest"
      ],
      [
        "earli",
        "er"
      ],
      [
        "F",
        "rom"
      ],
      [
        "200",
        "1"
      ],
      [
        "M",
        "id"
      ],
      [
        "init",
        "ially"
      ],
      [
        "ish",
        "ing"
      ],
      [
        "per",
        "cent"
      ],
      [
        "particular",
        "ly"
      ],
      [
        "tr",
        "aining"
      ],
      [
        "s",
        "il"
      ],
      [
        "At",
        "l"
      ],
      [
        "v",
        "ice"
      ],
      [
        "m",
        "ir"
      ],
      [
        "le",
        "ar"
      ],
      [
        "n",
        "d"
      ],
      [
        "c",
        "al"
      ],
      [
        "ers",
        "hip"
      ],
      [
        "S",
        "ing"
      ],
      [
        "Wh",
        "ite"
      ],
      [
        "ly",
        "ing"
      ],
      [
        "ed",
        "uc"
      ],
      [
        "m",
        "ust"
      ],
      [
        "Ch",
        "urch"
      ],
      [
        "ord",
        "ered"
      ],
      [
        "ass",
        "ist"
      ],
      [
        "issu",
        "e"
      ],
      [
        "Char",
        "les"
      ],
      [
        "King",
        "dom"
      ],
      [
        "N",
        "avy"
      ],
      [
        "iz",
        "e"
      ],
      [
        "M",
        "art"
      ],
      [
        "V",
        "al"
      ],
      [
        "h",
        "a"
      ],
      [
        "grap",
        "hy"
      ],
      [
        "sign",
        "ed"
      ],
      [
        "b",
        "it"
      ],
      [
        "D",
        "o"
      ],
      [
        "h",
        "ib"
      ],
      [
        "p",
        "ot"
      ],
      [
        "we",
        "ak"
      ],
      [
        "ate",
        "g"
      ],
      [
        "bo",
        "x"
      ],
      [
        "Thom",
        "as"
      ],
      [
        "p",
        "ond"
      ],
      [
        "s",
        "ocial"
      ],
      [
        "tri",
        "es"
      ],
      [
        "cent",
        "ral"
      ],
      [
        "th",
        "us"
      ],
      [
        "O",
        "ff"
      ],
      [
        "ut",
        "ure"
      ],
      [
        "studi",
        "o"
      ],
      [
        "main",
        "tain"
      ],
      [
        "pra",
        "ised"
      ],
      [
        "pe",
        "cted"
      ],
      [
        "H",
        "all"
      ],
      [
        "Inter",
        "national"
      ],
      [
        "spe",
        "ed"
      ],
      [
        "ali",
        "for"
      ],
      [
        "M",
        "ag"
      ],
      [
        "en",
        "cy"
      ],
      [
        "Sm",
        "ith"
      ],
      [
        "l",
        "angu"
      ],
      [
        "p",
        "rec"
      ],
      [
        "d",
        "ate"
      ],
      [
        "v",
        "ille"
      ],
      [
        "re",
        "ason"
      ],
      [
        "Vir",
        "gin"
      ],
      [
        "cept",
        "ion"
      ],
      [
        "p",
        "ers"
      ],
      [
        "incre",
        "ased"
      ],
      [
        "g",
        "ress"
      ],
      [
        "h",
        "urricane"
      ],
      [
        "b",
        "ow"
      ],
      [
        "nor",
        "thern"
      ],
      [
        "de",
        "al"
      ],
      [
        "D",
        "u"
      ],
      [
        "ific",
        "ation"
      ],
      [
        "un",
        "its"
      ],
      [
        "re",
        "search"
      ],
      [
        "B",
        "ut"
      ],
      [
        "200",
        "2"
      ],
      [
        "rel",
        "ig"
      ],
      [
        "p",
        "ast"
      ],
      [
        "9",
        "0"
      ],
      [
        "de",
        "part"
      ],
      [
        "ty",
        "pe"
      ],
      [
        "str",
        "y"
      ],
      [
        "me",
        "as"
      ],
      [
        "Canad",
        "a"
      ],
      [
        "ap",
        "e"
      ],
      [
        "B",
        "ur"
      ],
      [
        "C",
        "alifor"
      ],
      [
        "vi",
        "a"
      ],
      [
        "comm",
        "ission"
      ],
      [
        "D",
        "is"
      ],
      [
        "de",
        "li"
      ],
      [
        "B",
        "ay"
      ],
      [
        "t",
        "a"
      ],
      [
        "p",
        "ay"
      ],
      [
        "C",
        "am"
      ],
      [
        "r",
        "ac"
      ],
      [
        "im",
        "medi"
      ],
      [
        "me",
        "an"
      ],
      [
        "d",
        "augh"
      ],
      [
        "ay",
        "ed"
      ],
      [
        "A",
        "A"
      ],
      [
        "P",
        "ri"
      ],
      [
        "ri",
        "an"
      ],
      [
        "relation",
        "ship"
      ],
      [
        "ag",
        "on"
      ],
      [
        "fan",
        "try"
      ],
      [
        "ac",
        "qu"
      ],
      [
        "il",
        "ities"
      ],
      [
        "z",
        "a"
      ],
      [
        "Pe",
        "ter"
      ],
      [
        "Rich",
        "ard"
      ],
      [
        "press",
        "ed"
      ],
      [
        "om",
        "er"
      ],
      [
        "P",
        "al"
      ],
      [
        "in",
        "depend"
      ],
      [
        "us",
        "ually"
      ],
      [
        "im",
        "in"
      ],
      [
        "b",
        "omb"
      ],
      [
        "to",
        "ld"
      ],
      [
        "bet",
        "ter"
      ],
      [
        "Califor",
        "nia"
      ],
      [
        "Indi",
        "an"
      ],
      [
        "Ale",
        "x"
      ],
      [
        "B",
        "ro"
      ],
      [
        "ick",
        "et"
      ],
      [
        "st",
        "ates"
      ],
      [
        "en",
        "ough"
      ],
      [
        "wind",
        "s"
      ],
      [
        "Un",
        "ion"
      ],
      [
        "S",
        "en"
      ],
      [
        "M",
        "ill"
      ],
      [
        "h",
        "ol"
      ],
      [
        "S",
        "am"
      ],
      [
        "u",
        "k"
      ],
      [
        "pos",
        "itive"
      ],
      [
        "s",
        "al"
      ],
      [
        "com",
        "merc"
      ],
      [
        "k",
        "en"
      ],
      [
        "H",
        "o"
      ],
      [
        "j",
        "our"
      ],
      [
        "Cour",
        "t"
      ],
      [
        "Is",
        "land"
      ],
      [
        "conc",
        "ern"
      ],
      [
        "s",
        "ed"
      ],
      [
        "B",
        "rown"
      ],
      [
        "s",
        "at"
      ],
      [
        "sp",
[...]
